{
  "!": 4,
  "\"": 5,
  "\" \"": 17080,
  "\" \",": 17001,
  "\" \", \"": 16789,
  "\" \", \"\"": 16663,
  "\" \", \"\")": 16529,
  "\" i": 13969,
  "\" if": 13862,
  "\" if v": 13622,
  "\" if va": 13496,
  "\" if val": 13374,
  "\"\")": 17070,
  "\"\").": 17003,
  "\"\").l": 16905,
  "\"\").lo": 16792,
  "\"\").low": 16666,
  "\"\").lowe": 16532,
  "\"\".": 17355,
  "\"\".j": 17326,
  "\"\".jo": 17286,
  "\"\".joi": 17239,
  "\"\".join": 17185,
  "\"\".join(": 17128,
  "\")": 458,
  "\").": 17081,
  "\").l": 17004,
  "\").lo": 16906,
  "\").low": 16793,
  "\").lowe": 16667,
  "\").lower": 16533,
  "\")[": 20429,
  "\")[\"": 1131,
  "\")[\"v": 20254,
  "\")[\"va": 20140,
  "\")[\"val": 20015,
  "\")[\"valu": 19884,
  "\", \"": 17002,
  "\", \"\"": 16904,
  "\", \"\")": 16790,
  "\", \"\").": 16664,
  "\", \"\").l": 16530,
  "\".": 642,
  "\".j": 17356,
  "\".jo": 17327,
  "\".joi": 17287,
  "\".join": 17240,
  "\".join(": 17186,
  "\".join(r": 17129,
  "\"]": 1094,
  "\"].": 1119,
  "\"].s": 20362,
  "\"].su": 20262,
  "\"].sum": 20149,
  "\"].sum(": 20024,
  "\"].sum()": 19893,
  "\"ab": 13965,
  "\"abo": 13858,
  "\"abov": 13740,
  "\"above": 13618,
  "\"above\"": 13492,
  "\"be": 13974,
  "\"bel": 13870,
  "\"belo": 13752,
  "\"below": 13633,
  "\"below\"": 13507,
  "\"co": 22103,
  "\"cou": 22035,
  "\"coun": 21949,
  "\"count": 21852,
  "\"count e": 21627,
  "\"di": 18760,
  "\"div": 18737,
  "\"divi": 18703,
  "\"divis": 18660,
  "\"divisi": 18616,
  "\"divisib": 18567,
  "\"eq": 13977,
  "\"equ": 13876,
  "\"equa": 13758,
  "\"equal": 13640,
  "\"equal\"": 13515,
  "\"gr": 20426,
  "\"gro": 20352,
  "\"grou": 20249,
  "\"group": 20134,
  "\"group\"": 20009,
  "\"group\")": 19878,
  "\"no": 18765,
  "\"not": 18744,
  "\"not d": 18676,
  "\"not di": 18630,
  "\"not div": 18585,
  "\"re": 21049,
  "\"rec": 21020,
  "\"reco": 20982,
  "\"recor": 20933,
  "\"record": 20879,
  "\"records": 20818,
  "\"va": 20432,
  "\"val": 20358,
  "\"valu": 20257,
  "\"value": 20143,
  "\"value e": 24921,
  "\"value\"": 20018,
  "\"value\"]": 19887,
  "#": 6,
  "# A": 13938,
  "# As": 13829,
  "# Ass": 13712,
  "# Assi": 13589,
  "# Assis": 13464,
  "# Assist": 13342,
  "# U": 13880,
  "# Us": 13761,
  "# Use": 13644,
  "# User": 13518,
  "##": 262,
  "## A": 13828,
  "## As": 13711,
  "## Ass": 13588,
  "## Assi": 13463,
  "## Assis": 13341,
  "## U": 13760,
  "## Us": 13643,
  "## Use": 13517,
  "## User": 13394,
  "###": 282,
  "### A": 13710,
  "### As": 13587,
  "### Ass": 13462,
  "### Assi": 13340,
  "### U": 13642,
  "### Us": 13516,
  "### Use": 13393,
  "### User": 13271,
  "$": 7,
  "%": 8,
  "% 1": 18533,
  "% 11": 30157,
  "% 111": 30151,
  "% 1112": 30143,
  "% 1112 =": 30123,
  "% 13": 24248,
  "% 13 =": 30743,
  "% 13 ==": 30738,
  "% 134": 24240,
  "% 1346": 24229,
  "% 13462": 24215,
  "% 136": 26128,
  "% 1369": 26118,
  "% 13694": 26106,
  "% 137": 29505,
  "% 137 =": 29493,
  "% 137 ==": 29485,
  "% 14": 30690,
  "% 14 =": 30683,
  "% 14 ==": 30677,
  "% 17": 18526,
  "% 17 =": 18510,
  "% 17 ==": 18501,
  "% 2": 25494,
  "% 20": 30085,
  "% 20 =": 30073,
  "% 20 ==": 30065,
  "% 26": 25488,
  "% 269": 25479,
  "% 2696": 25468,
  "% 2696 =": 25442,
  "% 3": 26207,
  "% 30": 28910,
  "% 302": 28904,
  "% 302 =": 28892,
  "% 302 ==": 28884,
  "% 31": 26201,
  "% 317": 26192,
  "% 3179": 26181,
  "% 3179 =": 26154,
  "% 4": 28485,
  "% 4 =": 28477,
  "% 4 ==": 28471,
  "% 4 == 0": 28456,
  "% 41": 31809,
  "% 417": 31804,
  "% 4170": 31796,
  "% 4170 =": 31777,
  "% 45": 31239,
  "% 457": 31231,
  "% 4574": 31223,
  "% 4574 =": 31202,
  "% 5": 22612,
  "% 50": 22606,
  "% 50 =": 22592,
  "% 50 ==": 22583,
  "% 56": 25389,
  "% 566": 25381,
  "% 5663": 25370,
  "% 5663 =": 25347,
  "% 6": 14716,
  "% 6 =": 14641,
  "% 6 ==": 14591,
  "% 6 == 0": 14483,
  "% 67": 28187,
  "% 674": 28180,
  "% 6746": 28171,
  "% 6746 =": 28149,
  "% 7": 18762,
  "% 72": 18739,
  "% 729": 18707,
  "% 7298": 18666,
  "% 7298 =": 18576,
  "% 79": 25237,
  "% 797": 25229,
  "% 7970": 25219,
  "% 7970 =": 25197,
  "% 8": 21177,
  "% 85": 30417,
  "% 855": 30410,
  "% 8554": 30400,
  "% 8554 =": 30378,
  "% 86": 21171,
  "% 864": 21162,
  "% 8646": 21151,
  "% 8646 =": 21124,
  "% 9": 17419,
  "% 9 =": 17406,
  "% 9 ==": 17396,
  "% 9 == 0": 17378,
  "% 97": 24411,
  "% 970": 24402,
  "% 9706": 24392,
  "% 9706 =": 24368,
  "% d": 19165,
  "% di": 19128,
  "% div": 19072,
  "% divi": 19007,
  "% divis": 18929,
  "% diviso": 18846,
  "&": 9,
  "'": 10,
  "'ae": 22541,
  "'aei": 22500,
  "'aeio": 22444,
  "'aeiou": 22375,
  "'aeiou'": 22298,
  "'aeiouy": 23856,
  "'aeiouy'": 23844,
  "(": 11,
  "(\"": 525,
  "(\" \"": 17000,
  "(\" \",": 16903,
  "(\" \", \"": 16662,
  "(\" \", \"\"": 16528,
  "(\"c": 22102,
  "(\"co": 22034,
  "(\"cou": 21948,
  "(\"coun": 21851,
  "(\"count": 21743,
  "(\"g": 20425,
  "(\"gr": 20351,
  "(\"gro": 20248,
  "(\"grou": 20133,
  "(\"group": 20008,
  "(\"group\"": 19877,
  "(\"r": 21048,
  "(\"re": 21019,
  "(\"rec": 20981,
  "(\"reco": 20932,
  "(\"recor": 20878,
  "(\"record": 20817,
  "(\"v": 25116,
  "(\"va": 25096,
  "(\"val": 25065,
  "(\"valu": 25027,
  "(\"value": 24978,
  "()": 451,
  "() f": 24810,
  "() fo": 24752,
  "() for": 24679,
  "() for _": 24501,
  "() i": 15417,
  "() if": 15293,
  "() if l": 15008,
  "() if le": 14855,
  "() in": 22459,
  "() in a": 22317,
  "() in al": 22233,
  "())": 618,
  "()) =": 16912,
  "()) ==": 16800,
  "()) == s": 16539,
  "()),": 1058,
  "()), l": 20640,
  "()), li": 20573,
  "()), lim": 20507,
  "().": 1130,
  "().t": 20367,
  "().to": 20268,
  "().to_": 20155,
  "().to_d": 20030,
  "().to_di": 19899,
  "(0)": 21045,
  "(0).": 21015,
  "(0).t": 20976,
  "(0).to": 20926,
  "(0).to_": 20871,
  "(0).to_d": 20809,
  "(0,": 14419,
  "(0, l": 14294,
  "(0, le": 14222,
  "(0, len": 14141,
  "(0, len(": 14058,
  "(12": 17055,
  "(12)": 16969,
  "(13": 19494,
  "(13)": 31765,
  "(13,": 19458,
  "(13, 3": 19347,
  "(13, 3)": 19280,
  "(15": 29544,
  "(15)": 29541,
  "(16": 30944,
  "(16)": 30941,
  "(17": 30659,
  "(17,": 30653,
  "(17, 4": 30629,
  "(17, 4)": 30613,
  "(18": 28975,
  "(18)": 28973,
  "(2,": 19156,
  "(2, i": 19059,
  "(2, in": 18992,
  "(2, int": 18913,
  "(2, int(": 18828,
  "(2, v": 25072,
  "(2, va": 25038,
  "(2, val": 24992,
  "(2, valu": 24937,
  "(4, 3)": 31997,
  "(7,": 31840,
  "(7, 3": 31832,
  "(7, 3)": 31827,
  "(9,": 26741,
  "(9, 2": 26720,
  "(9, 2)": 26708,
  "(Ty": 22941,
  "(Typ": 22904,
  "(Type": 22856,
  "(TypeE": 22799,
  "(TypeEr": 22735,
  "(TypeErr": 22669,
  "([": 1142,
  "(ab": 17747,
  "(abs": 17716,
  "(abs(": 17668,
  "(abs(v": 17611,
  "(abs(va": 17549,
  "(abs(val": 17480,
  "(ch": 22545,
  "(cha": 22506,
  "(char": 22453,
  "(chara": 22385,
  "(charac": 22308,
  "(charact": 22222,
  "(co": 22090,
  "(cou": 22018,
  "(coun": 21933,
  "(count": 21833,
  "(count)": 21724,
  "(count):": 21610,
  "(cs": 23257,
  "(csv": 23222,
  "(csv.": 23174,
  "(csv.D": 23117,
  "(csv.Di": 23053,
  "(csv.Dic": 22986,
  "(de": 26665,
  "(def": 26640,
  "(defa": 26599,
  "(defau": 26543,
  "(defaul": 26472,
  "(default": 26392,
  "(di": 17742,
  "(dic": 29922,
  "(dict": 29886,
  "(dict.": 29843,
  "(dict.f": 29795,
  "(dict.fr": 29739,
  "(dig": 17705,
  "(digi": 17653,
  "(digit": 17595,
  "(digit)": 17532,
  "(ed": 27228,
  "(edg": 27175,
  "(edge": 27102,
  "(edges": 27012,
  "(edges)": 26909,
  "(edges):": 26797,
  "(fi": 22126,
  "(fir": 22071,
  "(firs": 21990,
  "(first": 21901,
  "(first)": 21794,
  "(gr": 20417,
  "(gro": 20338,
  "(grou": 20232,
  "(group": 20114,
  "(group_": 19989,
  "(group_l": 19856,
  "(he": 28016,
  "(hea": 27974,
  "(head": 27908,
  "(head.": 27815,
  "(head.v": 27709,
  "(head.va": 27594,
  "(ig": 17067,
  "(ign": 16983,
  "(igno": 16881,
  "(ignor": 16762,
  "(ignore": 16633,
  "(ignored": 16497,
  "(in": 17739,
  "(int": 17701,
  "(int(": 17649,
  "(int(d": 17591,
  "(int(di": 17528,
  "(int(dig": 17460,
  "(io": 23267,
  "(io.": 23235,
  "(io.S": 23189,
  "(io.St": 23131,
  "(io.Str": 23068,
  "(io.Stri": 23001,
  "(ke": 15525,
  "(key": 15427,
  "(key)": 15303,
  "(key))": 15166,
  "(le": 15473,
  "(lef": 15361,
  "(left": 15232,
  "(left +": 25762,
  "(left)": 15111,
  "(left,": 15089,
  "(left, 0": 26845,
  "(left, r": 14789,
  "(left.": 16785,
  "(left.r": 16658,
  "(left.re": 16523,
  "(len": 19473,
  "(len(": 19428,
  "(len(q": 24680,
  "(len(qu": 24595,
  "(len(que": 24504,
  "(len(t": 20621,
  "(len(te": 20554,
  "(len(tex": 20488,
  "(len(v": 19372,
  "(len(va": 19309,
  "(len(val": 19239,
  "(li": 23664,
  "(lim": 23633,
  "(limi": 23579,
  "(limit": 23507,
  "(limit,": 23425,
  "(np": 21566,
  "(np.": 21518,
  "(np.a": 21467,
  "(np.as": 21399,
  "(np.asa": 21325,
  "(np.asar": 21243,
  "(np.m": 21459,
  "(np.me": 21391,
  "(np.mea": 21317,
  "(np.mean": 21235,
  "(qu": 24848,
  "(que": 24813,
  "(queu": 24756,
  "(queue": 24684,
  "(queue)": 24599,
  "(queue))": 24508,
  "(re": 17362,
  "(rev": 17332,
  "(reve": 17293,
  "(rever": 17246,
  "(revers": 17192,
  "(reverse": 17135,
  "(ri": 15503,
  "(rig": 15393,
  "(righ": 15265,
  "(right": 15123,
  "(right)": 14972,
  "(right,": 26975,
  "(right.": 16683,
  "(right.r": 16550,
  "(ro": 20396,
  "(row": 20312,
  "(row_": 20965,
  "(row_l": 20915,
  "(row_li": 20858,
  "(row_lim": 20795,
  "(rows": 20203,
  "(rows)": 20082,
  "(rows).": 19978,
  "(rows).h": 19845,
  "(rows):": 19955,
  "(rows,": 26510,
  "(rows, m": 26352,
  "(ru": 31505,
  "(run": 31489,
  "(runn": 31456,
  "(runni": 31420,
  "(runnin": 31379,
  "(running": 31333,
  "(se": 18451,
  "(sel": 18372,
  "(self": 18269,
  "(self,": 18152,
  "(self, a": 17915,
  "(self, s": 17893,
  "(self, v": 27520,
  "(sh": 23670,
  "(sha": 23645,
  "(shap": 23595,
  "(shape": 23527,
  "(shape)": 23447,
  "(shape).": 23361,
  "(st": 15522,
  "(sta": 15962,
  "(stac": 15892,
  "(stack": 15813,
  "(stack.": 15721,
  "(stack.p": 15622,
  "(str": 15423,
  "(str(": 15299,
  "(str(k": 15162,
  "(str(ke": 15015,
  "(str(key": 14862,
  "(su": 19501,
  "(sum": 19467,
  "(sum(": 19417,
  "(sum(c": 22381,
  "(sum(ch": 22304,
  "(sum(cha": 22218,
  "(sum(v": 19360,
  "(sum(va": 19294,
  "(sum(val": 19223,
  "(te": 17351,
  "(tex": 17321,
  "(text": 17280,
  "(text)": 17232,
  "(text))": 17200,
  "(text)))": 23012,
  "(text))[": 17143,
  "(text):": 17178,
  "(text.": 20625,
  "(text.s": 20558,
  "(text.sp": 20492,
  "(va": 13950,
  "(val": 13843,
  "(valu": 13725,
  "(value": 13602,
  "(value *": 18833,
  "(value f": 29751,
  "(value)": 14531,
  "(value))": 17484,
  "(value):": 14474,
  "(value,": 13476,
  "(values": 14102,
  "(values)": 14019,
  "(values,": 19602,
  "(values[": 19227,
  ")": 12,
  ") *": 17751,
  ") * s": 17675,
  ") * sc": 17619,
  ") * sca": 17558,
  ") * scal": 17490,
  ") +": 19162,
  ") + 1": 19069,
  ") + 1)": 19004,
  ") + 1):": 18925,
  ") + o": 21480,
  ") + of": 21414,
  ") + off": 21340,
  ") + offs": 21260,
  ") -": 19505,
  ") - 1": 25929,
  ") - 1,": 25849,
  ") - 1, 1": 28930,
  ") - 1, 2": 30422,
  ") - 1, 3": 30481,
  ") - 1, 5": 31913,
  ") - 1, 8": 25645,
  ") - 2": 26725,
  ") - 2 +": 26698,
  ") - 3": 19430,
  ") - 3 +": 19312,
  ") - 4": 30645,
  ") - 4 +": 30618,
  ") /": 26047,
  ") //": 26005,
  ") // 2": 25866,
  ") =": 17088,
  ") ==": 17013,
  ") == s": 16801,
  ") == so": 16675,
  ") == sor": 16541,
  ") f": 17744,
  ") fo": 17708,
  ") for": 17657,
  ") for _": 24593,
  ") for d": 17536,
  ") for di": 17468,
  ") for i": 19303,
  ") for in": 19233,
  ") i": 15519,
  ") if": 15418,
  ") if l": 15156,
  ") if le": 15009,
  ") if len": 14856,
  ") in": 22510,
  ") in a": 22393,
  ") in al": 22318,
  ") in all": 22234,
  "))": 377,
  ")) *": 17722,
  ")) * s": 17618,
  ")) * sc": 17557,
  ")) * sca": 17489,
  ")) +": 21536,
  ")) + o": 21413,
  ")) + of": 21339,
  ")) + off": 21259,
  ")) =": 17012,
  ")) ==": 16913,
  ")) == s": 16674,
  ")) == so": 16540,
  ")))": 748,
  "))) *": 17674,
  "))) * s": 17556,
  "))) * sc": 17488,
  "))) +": 21479,
  "))) + o": 21338,
  "))) + of": 21258,
  ")))[": 23246,
  ")))[:": 1047,
  ")))[:l": 23145,
  ")))[:li": 23084,
  ")))[:lim": 23017,
  ")),": 20754,
  ")), l": 20692,
  ")), li": 20641,
  ")), lim": 20574,
  ")), limi": 20508,
  "))[": 17366,
  "))[:": 647,
  "))[:l": 17302,
  "))[:li": 17257,
  "))[:lim": 17205,
  "))[:limi": 17148,
  "))]": 778,
  "),": 797,
  "), 4": 14369,
  "), 4)": 14302,
  "), 4)]": 14231,
  "), l": 20732,
  "), li": 20693,
  "), lim": 20642,
  "), limi": 20575,
  "), limit": 20509,
  "), m": 22518,
  "), ma": 22471,
  "), max": 22408,
  "), maxi": 22336,
  "), maxim": 22256,
  ").": 728,
  ").h": 20411,
  ").he": 20333,
  ").hea": 20226,
  ").head": 20108,
  ").head(": 19983,
  ").head(g": 19850,
  ").head(r": 20789,
  ").l": 17082,
  ").lo": 17005,
  ").low": 16907,
  ").lowe": 16794,
  ").lower": 16668,
  ").lower(": 16534,
  ").s": 23672,
  ").sh": 23648,
  ").sha": 23599,
  ").shap": 23532,
  ").shape": 23453,
  ").t": 20438,
  ").to": 20368,
  ").to_": 20269,
  ").to_d": 20156,
  ").to_di": 20031,
  ").to_dic": 19900,
  "):": 298,
  ")[\"": 20430,
  ")[\"v": 20356,
  ")[\"va": 20255,
  ")[\"val": 20141,
  ")[\"valu": 20016,
  ")[\"value": 19885,
  ")[:": 675,
  ")[:l": 17339,
  ")[:li": 17303,
  ")[:lim": 17258,
  ")[:limi": 17206,
  ")[:limit": 17149,
  ")[:m": 23628,
  ")[:ma": 23573,
  ")[:max": 23501,
  ")[:max(": 23419,
  ")[:max(d": 29058,
  ")[:max(l": 23331,
  ")]": 1026,
  "*": 13,
  "* 0": 19159,
  "* 0.": 19124,
  "* 0.5": 19067,
  "* 0.5)": 19001,
  "* 0.5) +": 18838,
  "* s": 17752,
  "* sc": 17723,
  "* sca": 17676,
  "* scal": 17620,
  "* scale": 17559,
  "* v": 16408,
  "* va": 16370,
  "* val": 16317,
  "* valu": 16252,
  "* value": 16177,
  "* value)": 23937,
  "** 0": 19123,
  "** 0.": 19066,
  "** 0.5": 19000,
  "** 0.5)": 18922,
  "*= n": 25104,
  "*= nu": 25077,
  "*= num": 25045,
  "*= numb": 25001,
  "*= numbe": 24947,
  "+": 14,
  "+ 1": 19163,
  "+ 1)": 19127,
  "+ 1))": 19433,
  "+ 1):": 19070,
  "+ 2": 26743,
  "+ 2]": 26735,
  "+ 2])": 26723,
  "+ 2]) f": 26695,
  "+ 2]) fo": 26678,
  "+ 3": 19503,
  "+ 3]": 19470,
  "+ 3])": 19422,
  "+ 3]) f": 19301,
  "+ 3]) fo": 19231,
  "+ 4": 14409,
  "+ 4]": 14349,
  "+ 4] f": 14208,
  "+ 4] fo": 14126,
  "+ 4] for": 14043,
  "+ 4])": 30643,
  "+ 4]) f": 30615,
  "+ 4]) fo": 30600,
  "+ o": 21581,
  "+ of": 21537,
  "+ off": 21481,
  "+ offs": 21415,
  "+ offse": 21341,
  "+ offset": 21261,
  "+ r": 26046,
  "+ ri": 26003,
  "+ rig": 25941,
  "+ righ": 25863,
  "+ right": 25766,
  "+ right)": 25659,
  "+ s": 22131,
  "+ se": 22078,
  "+ sec": 21999,
  "+ seco": 21914,
  "+ secon": 21809,
  "+ second": 21695,
  "+ su": 28437,
  "+ sum": 28421,
  "+ sum(": 28399,
  "+ sum(v": 28375,
  "+ sum(va": 28348,
  "+= a": 18399,
  "+= am": 18301,
  "+= amo": 18187,
  "+= amou": 18062,
  "+= amoun": 17927,
  "+= v": 31484,
  "+= va": 31449,
  "+= val": 31411,
  "+= valu": 31368,
  "+= value": 31321,
  ",": 15,
  ", \"": 17069,
  ", \"\"": 16986,
  ", \"\")": 16885,
  ", \"\").": 16791,
  ", \"\").l": 16665,
  ", \"\").lo": 16531,
  ", 0": 27242,
  ", 0)": 27204,
  ", 0) +": 27059,
  ", 0) + 1": 26848,
  ", 1": 22120,
  ", 13": 28943,
  ", 13)": 28940,
  ", 14": 31733,
  ", 14)": 31730,
  ", 2": 26742,
  ", 2)": 26734,
  ", 20": 30436,
  ", 20)": 30432,
  ", 3": 19496,
  ", 3)": 19460,
  ", 4": 14424,
  ", 4)": 14370,
  ", 4)]": 14303,
  ", 5": 31927,
  ", 5)": 31924,
  ", 8": 26039,
  ", 8)": 25994,
  ", V": 22946,
  ", Va": 22910,
  ", Val": 22863,
  ", Valu": 22807,
  ", Value": 22743,
  ", ValueE": 22678,
  ", a": 18464,
  ", am": 18392,
  ", amo": 18295,
  ", amou": 18180,
  ", amoun": 18055,
  ", amount": 17920,
  ", b": 13955,
  ", bo": 13847,
  ", bou": 13729,
  ", boun": 13607,
  ", bound": 13481,
  ", bounda": 13358,
  ", d": 22929,
  ", de": 22889,
  ", def": 22840,
  ", defa": 22782,
  ", defau": 22719,
  ", defaul": 22650,
  ", f": 22129,
  ", fi": 22076,
  ", fir": 21996,
  ", firs": 21910,
  ", first": 21804,
  ", h": 28009,
  ", he": 27961,
  ", hea": 27892,
  ", head": 27799,
  ", head)": 27692,
  ", i": 19157,
  ", in": 19119,
  ", int": 19061,
  ", int(": 18994,
  ", int(v": 18915,
  ", int(va": 18830,
  ", l": 14420,
  ", le": 14364,
  ", len": 14296,
  ", len(": 14224,
  ", len(v": 14143,
  ", len(va": 14060,
  ", li": 20733,
  ", lim": 20694,
  ", limi": 20643,
  ", limit": 20576,
  ", limit)": 20510,
  ", m": 22550,
  ", ma": 22519,
  ", max": 22472,
  ", maxi": 22409,
  ", maxim": 22337,
  ", maximu": 22257,
  ", mi": 25991,
  ", min": 25928,
  ", min(": 25847,
  ", min(l": 25748,
  ", min(le": 25640,
  ", mini": 26514,
  ", minim": 26439,
  ", minimu": 26357,
  ", n": 27994,
  ", ne": 27939,
  ", nex": 27858,
  ", next": 27760,
  ", next_": 27651,
  ", next_n": 27531,
  ", r": 15477,
  ", re": 19745,
  ", rev": 19721,
  ", reve": 19691,
  ", rever": 19654,
  ", revers": 19608,
  ", ri": 15364,
  ", rig": 15236,
  ", righ": 15093,
  ", right": 14943,
  ", right)": 14794,
  ", s": 18455,
  ", se": 22057,
  ", sec": 21974,
  ", seco": 21880,
  ", secon": 21772,
  ", second": 21657,
  ", sh": 23621,
  ", sha": 23564,
  ", shap": 23490,
  ", shape": 23407,
  ", shape)": 23319,
  ", st": 18375,
  ", sta": 18273,
  ", star": 18156,
  ", start": 18031,
  ", start=": 17898,
  ", t": 26036,
  ", ta": 25987,
  ", tar": 25923,
  ", targ": 25840,
  ", targe": 25741,
  ", target": 25633,
  ", th": 29238,
  ", thr": 29204,
  ", thre": 29161,
  ", thres": 29111,
  ", thresh": 29055,
  ", v": 15511,
  ", va": 15406,
  ", val": 15281,
  ", valu": 15141,
  ", value": 14992,
  ", value,": 27525,
  "-": 16,
  "- 1": 26038,
  "- 1,": 25992,
  "- 1, 1": 28936,
  "- 1, 13": 28934,
  "- 1, 13)": 28931,
  "- 1, 14": 31723,
  "- 1, 14)": 31719,
  "- 1, 2": 30428,
  "- 1, 20": 30426,
  "- 1, 20)": 30423,
  "- 1, 3": 30488,
  "- 1, 3)": 30485,
  "- 1, 5": 31919,
  "- 1, 5)": 31916,
  "- 1, 8": 25850,
  "- 1, 8)": 25752,
  "- 2": 26745,
  "- 2 +": 26726,
  "- 2 + 1": 26699,
  "- 2 + 1)": 26681,
  "- 20": 30800,
  "- 20 +": 30794,
  "- 20 + s": 30777,
  "- 3": 19506,
  "- 3 +": 19431,
  "- 3 + 1": 19313,
  "- 3 + 1)": 19243,
  "- 3 + s": 29611,
  "- 3 + su": 29600,
  "- 4": 30662,
  "- 4 +": 30646,
  "- 4 + 1": 30619,
  "- 4 + 1)": 30603,
  "- 8": 31881,
  "- 8 +": 31874,
  "- 8 + s": 31860,
  "- 8 + su": 31849,
  "- 9": 28446,
  "- 9 +": 28419,
  "- 9 + s": 28373,
  "- 9 + su": 28346,
  "-in": 24823,
  "-in f": 24701,
  "-in fi": 24619,
  "-in fir": 24529,
  "-in firs": 24436,
  "-ou": 24825,
  "-out": 24774,
  "-out o": 24623,
  "-out or": 24534,
  "-out ord": 24441,
  ".": 17,
  ".5)": 19161,
  ".5) +": 19068,
  ".5) + 1": 18923,
  ".5) + 1)": 18840,
  ".Da": 20404,
  ".Dat": 20323,
  ".Data": 20215,
  ".DataF": 20096,
  ".DataFr": 19969,
  ".DataFra": 19835,
  ".Di": 23260,
  ".Dic": 23226,
  ".Dict": 23178,
  ".DictR": 23121,
  ".DictRe": 23057,
  ".DictRea": 22990,
  ".St": 23270,
  ".Str": 23238,
  ".Stri": 23192,
  ".Strin": 23134,
  ".String": 23071,
  ".StringI": 23004,
  ".ad": 18477,
  ".add": 18410,
  ".add(": 18315,
  ".add(v": 18204,
  ".add(va": 18082,
  ".add(val": 17949,
  ".ap": 16005,
  ".app": 15950,
  ".appe": 15875,
  ".appen": 15793,
  ".append": 15698,
  ".append(": 15596,
  ".as": 21573,
  ".asa": 21527,
  ".asar": 21470,
  ".asarr": 21402,
  ".asarra": 21328,
  ".asarray": 21246,
  ".fi": 21039,
  ".fil": 21009,
  ".fill": 20969,
  ".filln": 20920,
  ".fillna": 20864,
  ".fillna(": 20802,
  ".fr": 29949,
  ".fro": 29926,
  ".from": 29891,
  ".fromk": 29848,
  ".fromke": 29800,
  ".fromkey": 29744,
  ".ge": 27240,
  ".get": 27200,
  ".get(": 27138,
  ".get(l": 27054,
  ".get(le": 26955,
  ".get(lef": 26842,
  ".get(r": 27068,
  ".get(ri": 26971,
  ".get(rig": 26860,
  ".gr": 20420,
  ".gro": 20345,
  ".grou": 20241,
  ".group": 20125,
  ".groupb": 20001,
  ".groupby": 19869,
  ".he": 20412,
  ".hea": 20334,
  ".head": 20227,
  ".head(": 20109,
  ".head(d": 26467,
  ".head(de": 26387,
  ".head(g": 19984,
  ".head(gr": 19851,
  ".head(r": 20853,
  ".head(ro": 20790,
  ".it": 15514,
  ".ite": 15412,
  ".item": 15289,
  ".items": 15151,
  ".items(": 15004,
  ".items()": 14851,
  ".jo": 17357,
  ".joi": 17328,
  ".join": 17288,
  ".join(": 17241,
  ".join(r": 17187,
  ".join(re": 17130,
  ".lo": 17083,
  ".low": 17006,
  ".lowe": 16908,
  ".lower": 16795,
  ".lower(": 16669,
  ".lower()": 16535,
  ".me": 21569,
  ".mea": 21521,
  ".mean": 21462,
  ".mean(": 21394,
  ".mean(n": 21320,
  ".mean(np": 21238,
  ".ne": 28006,
  ".nex": 27952,
  ".next": 27875,
  ".next =": 27668,
  ".po": 16016,
  ".pop": 15965,
  ".pop(": 15896,
  ".pop()": 15818,
  ".pop())": 15727,
  ".popl": 24745,
  ".pople": 24672,
  ".poplef": 24587,
  ".popleft": 24495,
  ".re": 17060,
  ".rep": 16975,
  ".repl": 16874,
  ".repla": 16754,
  ".replac": 16626,
  ".replace": 16489,
  ".res": 23641,
  ".resh": 23590,
  ".resha": 23521,
  ".reshap": 23440,
  ".reshape": 23353,
  ".sh": 23673,
  ".sha": 23649,
  ".shap": 23600,
  ".shape": 23533,
  ".sp": 20750,
  ".spl": 20725,
  ".spli": 20683,
  ".split": 20630,
  ".splitl": 20563,
  ".splitli": 20497,
  ".su": 20436,
  ".sum": 20364,
  ".sum(": 20264,
  ".sum()": 20151,
  ".sum().": 20026,
  ".sum().t": 19895,
  ".to": 20439,
  ".to_": 20369,
  ".to_d": 20270,
  ".to_di": 20157,
  ".to_dic": 20032,
  ".to_dict": 19901,
  ".tol": 29251,
  ".toli": 29220,
  ".tolis": 29180,
  ".tolist": 29132,
  ".tolist(": 29078,
  ".up": 15497,
  ".upd": 15387,
  ".upda": 15259,
  ".updat": 15117,
  ".update": 14965,
  ".update(": 14814,
  ".va": 18462,
  ".val": 18384,
  ".valu": 18283,
  ".value": 18166,
  ".value +": 17922,
  ".value =": 17905,
  ".value)": 27714,
  "/": 18,
  "/ 2": 26048,
  "//": 836,
  "// 2": 26006,
  "0": 19,
  "0 +": 30802,
  "0 + s": 30799,
  "0 + su": 30796,
  "0 + sum": 30788,
  "0 + sum(": 30779,
  "0 =": 22613,
  "0 ==": 22608,
  "0 == 0": 22593,
  "0 == 0 e": 22574,
  "0 C": 28762,
  "0 CS": 28759,
  "0 CSV": 28755,
  "0 CSV r": 28746,
  "0 CSV ro": 28741,
  "0 c": 25290,
  "0 ch": 25287,
  "0 cha": 25283,
  "0 char": 25277,
  "0 chara": 25269,
  "0 charac": 25261,
  "0 e": 18764,
  "0 el": 18742,
  "0 els": 18711,
  "0 else": 18672,
  "0 else \"": 18581,
  "0 f": 22610,
  "0 fo": 22604,
  "0 for": 22596,
  "0 for t": 22579,
  "0 for th": 22569,
  "0 l": 31529,
  "0 li": 31527,
  "0 lin": 31524,
  "0 line": 31520,
  "0 lines": 31516,
  "0 v": 15977,
  "0 va": 15914,
  "0 val": 15833,
  "0 valu": 15744,
  "0 value": 15646,
  "0 values": 15543,
  "0) +": 27205,
  "0) + 1": 27060,
  "0).": 21046,
  "0).t": 21016,
  "0).to": 20977,
  "0).to_": 20927,
  "0).to_d": 20872,
  "0).to_di": 20810,
  "0):": 28626,
  "0, 1": 22062,
  "0, l": 14363,
  "0, le": 14295,
  "0, len": 14223,
  "0, len(": 14142,
  "0, len(v": 14059,
  "0, m": 25990,
  "0, mi": 25927,
  "0, min": 25846,
  "0, min(": 25747,
  "0, min(l": 25639,
  "0.5": 19160,
  "0.5)": 19125,
  "0.5) +": 19002,
  "0.5) + 1": 18839,
  "00": 1191,
  "00.": 28218,
  "001": 30943,
  "001.": 30939,
  "002": 25153,
  "002.": 25150,
  "003": 28251,
  "003.": 28246,
  "01": 1210,
  "01.": 22173,
  "010": 30216,
  "0101": 30214,
  "0101.": 30212,
  "013": 28136,
  "013.": 28134,
  "02": 1198,
  "02 =": 28911,
  "02 ==": 28906,
  "02 == 0": 28893,
  "02 f": 28908,
  "02 fo": 28903,
  "02 for": 28896,
  "02 for t": 28880,
  "02.": 25154,
  "022": 28764,
  "022.": 28761,
  "026": 30113,
  "026.": 30111,
  "03": 1224,
  "03.": 24111,
  "033": 31259,
  "0331": 31257,
  "0331.": 31255,
  "04": 1197,
  "04.": 22928,
  "044": 30189,
  "044.": 30187,
  "05": 1221,
  "05.": 31027,
  "051": 29399,
  "051.": 29397,
  "052": 29285,
  "052.": 29283,
  "054": 27267,
  "054.": 27266,
  "055": 19570,
  "055.": 19568,
  "06": 1183,
  "06 =": 24412,
  "06 ==": 24404,
  "06 == 0": 24381,
  "06 f": 24408,
  "06 fo": 24398,
  "06 for": 24387,
  "06 for t": 24361,
  "06.": 16405,
  "062": 23757,
  "062.": 23754,
  "063": 31171,
  "063.": 31170,
  "069": 29477,
  "069.": 29476,
  "07": 1202,
  "07.": 24185,
  "08": 1203,
  "08.": 27226,
  "082": 29003,
  "0820": 29001,
  "0820.": 28998,
  "089": 26247,
  "089.": 26244,
  "09": 1222,
  "09.": 30658,
  "095": 30849,
  "0951": 30846,
  "0951.": 30844,
  "096": 31690,
  "096.": 31689,
  "098": 28622,
  "098.": 28616,
  "0]:": 30271,
  "1": 20,
  "1 C": 30466,
  "1 CS": 30463,
  "1 CSV": 30458,
  "1 CSV r": 30448,
  "1 CSV ro": 30442,
  "1 f": 28316,
  "1 fo": 28313,
  "1 for": 28308,
  "1 for t": 28297,
  "1 for th": 28291,
  "1 v": 29445,
  "1 va": 29439,
  "1 val": 29431,
  "1 valu": 29423,
  "1 value": 29414,
  "1 values": 29404,
  "1))": 19508,
  "1):": 19164,
  "1, 1": 28942,
  "1, 13": 28939,
  "1, 13)": 28937,
  "1, 14": 31729,
  "1, 14)": 31726,
  "1, 2": 30435,
  "1, 20": 30431,
  "1, 20)": 30429,
  "1, 3": 30494,
  "1, 3)": 30491,
  "1, 5": 31923,
  "1, 5)": 31921,
  "1, 8": 25993,
  "1, 8)": 25930,
  "10": 825,
  "10 c": 30109,
  "10 ch": 30106,
  "10 cha": 30103,
  "10 char": 30098,
  "10 chara": 30093,
  "10 f": 23883,
  "10 fo": 23874,
  "10 for": 23864,
  "10 for t": 23840,
  "10 l": 31526,
  "10 li": 31523,
  "10 lin": 31519,
  "10 line": 31515,
  "10 lines": 31510,
  "10 v": 23748,
  "10 va": 23738,
  "10 val": 23725,
  "10 valu": 23711,
  "10 value": 23694,
  "100": 28250,
  "1003": 28245,
  "1003.": 28241,
  "101": 28135,
  "101.": 30215,
  "1010": 30213,
  "10101": 30211,
  "10101.": 30210,
  "1013": 28133,
  "1013.": 28132,
  "103": 28691,
  "103.": 28685,
  "1033": 31256,
  "10331": 31254,
  "10331.": 31252,
  "105": 29284,
  "105.": 31026,
  "1052": 29282,
  "1052.": 29280,
  "106": 16404,
  "106.": 16368,
  "1069": 29475,
  "1069.": 29474,
  "108": 26246,
  "1082": 29000,
  "10820": 28997,
  "10820.": 28994,
  "1089": 26243,
  "1089.": 26241,
  "109": 30848,
  "1095": 30845,
  "10951": 30843,
  "10951.": 30841,
  "10]": 31956,
  "10]:": 31954,
  "11": 916,
  "11 C": 30462,
  "11 CS": 30457,
  "11 CSV": 30453,
  "11 CSV r": 30441,
  "11 f": 28312,
  "11 fo": 28307,
  "11 for": 28303,
  "11 for t": 28290,
  "11 v": 29438,
  "11 va": 29430,
  "11 val": 29422,
  "11 valu": 29413,
  "11 value": 29403,
  "11.": 31286,
  "110": 16403,
  "1105": 29281,
  "11052": 29279,
  "11052.": 29278,
  "1106": 16367,
  "1106.": 16313,
  "111": 1558,
  "1112": 30155,
  "1112 =": 30144,
  "1112 ==": 30134,
  "1112 f": 30138,
  "1112 fo": 30127,
  "1112 for": 30117,
  "1112.": 30150,
  "112": 30159,
  "112 =": 30152,
  "112 ==": 30145,
  "112 == 0": 30124,
  "112 f": 30148,
  "112 fo": 30139,
  "112 for": 30128,
  "112.": 30156,
  "1129": 31627,
  "1129.": 31626,
  "114": 28736,
  "1140": 28734,
  "11402": 30333,
  "11402.": 30331,
  "11407": 28732,
  "11407.": 28729,
  "1147": 30717,
  "1147.": 30716,
  "115": 26305,
  "1154": 26299,
  "11547": 26292,
  "11547.": 26285,
  "116": 18531,
  "116.": 18525,
  "11:": 22092,
  "11]": 29449,
  "11]:": 29444,
  "12": 847,
  "12 =": 30158,
  "12 ==": 30153,
  "12 == 0": 30135,
  "12 c": 27398,
  "12 ch": 27384,
  "12 cha": 27367,
  "12 char": 27347,
  "12 chara": 27325,
  "12 f": 16958,
  "12 fo": 16852,
  "12 for": 16730,
  "12 for t": 16462,
  "12 v": 25571,
  "12 va": 25562,
  "12 val": 25553,
  "12 valu": 25544,
  "12 value": 25533,
  "12)": 17056,
  "12):": 18380,
  "12.": 30160,
  "121": 28689,
  "1210": 28683,
  "12103": 28676,
  "12103.": 28669,
  "122": 21555,
  "1229": 21503,
  "1229.": 21444,
  "123": 24324,
  "123.": 24320,
  "125": 29696,
  "125.": 29694,
  "127": 25112,
  "1270": 25093,
  "1270.": 25062,
  "129": 26081,
  "129.": 31628,
  "1297": 26079,
  "1297.": 26077,
  "12:": 27268,
  "12]": 25583,
  "12]:": 25578,
  "13": 841,
  "13 =": 30750,
  "13 ==": 30746,
  "13 == 0": 30739,
  "13 c": 23688,
  "13 ch": 23686,
  "13 cha": 23684,
  "13 char": 23681,
  "13 chara": 23677,
  "13 f": 21496,
  "13 fo": 21434,
  "13 for": 21363,
  "13 for t": 21201,
  "13 v": 17817,
  "13 va": 17805,
  "13 val": 17793,
  "13 valu": 17776,
  "13 value": 17756,
  "13)": 28067,
  "13):": 28064,
  "13,": 19495,
  "13, 3": 19406,
  "13, 3)": 19348,
  "13.": 28137,
  "132": 17733,
  "1328": 17693,
  "1328.": 17641,
  "133": 26034,
  "1338": 25984,
  "1338.": 25920,
  "134": 24251,
  "1346": 24244,
  "13462": 24235,
  "13462 =": 24216,
  "13462 ==": 24200,
  "13462 f": 24207,
  "13462 fo": 24191,
  "13462.": 24227,
  "135": 27320,
  "1354": 27317,
  "1354.": 27314,
  "136": 26137,
  "136.": 31068,
  "1361": 27410,
  "1361.": 27397,
  "1369": 26131,
  "13694": 26123,
  "13694 =": 26107,
  "13694 ==": 26094,
  "13694 f": 26099,
  "13694 fo": 26086,
  "13694.": 26117,
  "137": 29511,
  "137 =": 29506,
  "137 ==": 29500,
  "137 == 0": 29486,
  "137 f": 29502,
  "137 fo": 29496,
  "137 for": 29489,
  "137.": 29509,
  "139": 28317,
  "1398": 28314,
  "1398.": 28310,
  "13]": 28284,
  "13]:": 28280,
  "14": 824,
  "14 =": 30691,
  "14 ==": 30686,
  "14 == 0": 30678,
  "14 c": 28119,
  "14 ch": 28116,
  "14 cha": 28110,
  "14 char": 28104,
  "14 chara": 28097,
  "14 f": 26298,
  "14 fo": 26290,
  "14 for": 26282,
  "14 for t": 26264,
  "14 v": 28569,
  "14 va": 28564,
  "14 val": 28558,
  "14 valu": 28551,
  "14 value": 28543,
  "14)": 26310,
  "14):": 26304,
  "140": 28737,
  "1402": 30335,
  "1402.": 30334,
  "1407": 28735,
  "1407.": 28733,
  "141": 30588,
  "141.": 30586,
  "143": 25426,
  "143.": 31528,
  "1434": 25423,
  "1434.": 25420,
  "144": 27445,
  "144.": 27442,
  "146": 30203,
  "1462": 30202,
  "1462.": 30201,
  "147": 28572,
  "147.": 30718,
  "1475": 31561,
  "1475.": 31560,
  "1477": 28570,
  "1477.": 28566,
  "148": 28845,
  "148.": 28841,
  "14:": 31149,
  "15": 844,
  "15 f": 13806,
  "15 fo": 13686,
  "15 for": 13564,
  "15 for t": 13317,
  "15 l": 31676,
  "15 li": 31674,
  "15 lin": 31671,
  "15 line": 31667,
  "15 lines": 31663,
  "15 v": 24878,
  "15 va": 24873,
  "15 val": 24866,
  "15 valu": 24860,
  "15 value": 24852,
  "15)": 13959,
  "15):": 13852,
  "15.": 13937,
  "150": 28065,
  "150.": 28061,
  "153": 25579,
  "1532": 25573,
  "1532.": 25565,
  "154": 26306,
  "154.": 28926,
  "1547": 26300,
  "1547.": 26293,
  "155": 28091,
  "1551": 28089,
  "1551.": 28088,
  "1552": 31083,
  "1552.": 31082,
  "156": 17417,
  "156.": 17412,
  "157": 31911,
  "157.": 31910,
  "158": 28538,
  "1585": 28536,
  "1585.": 28535,
  "15]": 28253,
  "15]:": 28249,
  "16": 846,
  "16 c": 31551,
  "16 ch": 31548,
  "16 cha": 31545,
  "16 char": 31539,
  "16 chara": 31533,
  "16 e": 28212,
  "16 ed": 28208,
  "16 edg": 28203,
  "16 edge": 28198,
  "16 edges": 28193,
  "16 f": 25092,
  "16 fo": 25060,
  "16 for": 25021,
  "16 for t": 24913,
  "16 v": 22164,
  "16 va": 22158,
  "16 val": 22151,
  "16 valu": 22144,
  "16 value": 22135,
  "16)": 25335,
  "16):": 25330,
  "16.": 18532,
  "162": 26737,
  "1624": 26729,
  "1624.": 26717,
  "1628": 28941,
  "1628.": 28938,
  "163": 31554,
  "163.": 31553,
  "167": 31189,
  "167.": 31188,
  "1670": 31472,
  "1670.": 31438,
  "168": 20389,
  "1689": 20301,
  "1689.": 20191,
  "16:": 25115,
  "17": 842,
  "17 =": 18527,
  "17 ==": 18519,
  "17 == 0": 18502,
  "17 c": 29366,
  "17 ch": 29363,
  "17 cha": 29359,
  "17 char": 29353,
  "17 chara": 29347,
  "17 f": 17690,
  "17 fo": 17637,
  "17 for": 17578,
  "17 for t": 17445,
  "17 v": 31471,
  "17 va": 31437,
  "17 val": 31400,
  "17 valu": 31356,
  "17 value": 31307,
  "17)": 22935,
  "17):": 22897,
  "17,": 30660,
  "17, 4": 30641,
  "17, 4)": 30630,
  "170": 31811,
  "170 =": 31805,
  "170 ==": 31798,
  "170 == 0": 31778,
  "170 f": 31801,
  "170 fo": 31792,
  "170 for": 31782,
  "170.": 31808,
  "172": 15987,
  "172.": 15929,
  "178": 30000,
  "1785": 29994,
  "1785.": 29987,
  "179": 26205,
  "179 =": 26193,
  "179 ==": 26183,
  "179 == 0": 26155,
  "179 f": 26186,
  "179 fo": 26174,
  "179 for": 26161,
  "179.": 26200,
  "17:": 28779,
  "18": 810,
  "18 c": 24134,
  "18 ch": 24131,
  "18 cha": 24127,
  "18 char": 24121,
  "18 chara": 24115,
  "18 f": 28970,
  "18 fo": 28965,
  "18 for": 28959,
  "18 for t": 28948,
  "18 v": 29992,
  "18 va": 29984,
  "18 val": 29976,
  "18 valu": 29967,
  "18 value": 29957,
  "18)": 28976,
  "18):": 30042,
  "18.": 21110,
  "183": 25183,
  "1837": 25181,
  "1837.": 25180,
  "184": 31660,
  "184.": 31658,
  "185": 14394,
  "185.": 14331,
  "189": 28974,
  "189.": 28971,
  "18]": 30003,
  "18]:": 29998,
  "19": 843,
  "19 C": 23203,
  "19 CS": 23147,
  "19 CSV": 23087,
  "19 CSV r": 22954,
  "19 c": 17313,
  "19 ch": 17271,
  "19 cha": 17223,
  "19 char": 17167,
  "19 chara": 17110,
  "19 f": 28682,
  "19 fo": 28674,
  "19 for": 28666,
  "19 for t": 28648,
  "19 v": 25146,
  "19 va": 25141,
  "19 val": 25136,
  "19 valu": 25130,
  "19 value": 25123,
  "19)": 28693,
  "19):": 28688,
  "19.": 22088,
  "190": 30857,
  "190.": 30856,
  "191": 21033,
  "191.": 21001,
  "197": 26650,
  "1972": 28709,
  "1972.": 28708,
  "1973": 26620,
  "1973.": 26573,
  "198": 27988,
  "1984": 27931,
  "1984.": 27849,
  "1]:": 29450,
  "2": 21,
  "2 +": 26746,
  "2 + 1": 26727,
  "2 + 1)": 26713,
  "2 + 1))": 26700,
  "2 =": 24254,
  "2 ==": 24250,
  "2 == 0": 24232,
  "2 == 0 e": 24202,
  "2 c": 15455,
  "2 ch": 15336,
  "2 cha": 15204,
  "2 char": 15061,
  "2 chara": 14908,
  "2 charac": 14759,
  "2 f": 17046,
  "2 fo": 16959,
  "2 for": 16853,
  "2 for t": 16601,
  "2 for th": 16463,
  "2 o": 19151,
  "2 or": 19108,
  "2 or v": 18976,
  "2 or va": 18894,
  "2 or val": 18809,
  "2 v": 24353,
  "2 va": 24350,
  "2 val": 24347,
  "2 valu": 24343,
  "2 value": 24337,
  "2 values": 24332,
  "2):": 18459,
  "2, i": 19118,
  "2, in": 19060,
  "2, int": 18993,
  "2, int(": 18914,
  "2, int(v": 18829,
  "2, v": 25101,
  "2, va": 25073,
  "2, val": 25039,
  "2, valu": 24993,
  "2, value": 24938,
  "20": 845,
  "20 +": 30801,
  "20 + s": 30795,
  "20 + su": 30787,
  "20 + sum": 30778,
  "20 =": 30086,
  "20 ==": 30079,
  "20 == 0": 30066,
  "20 C": 28758,
  "20 CS": 28754,
  "20 CSV": 28751,
  "20 CSV r": 28740,
  "20 c": 25286,
  "20 ch": 25282,
  "20 cha": 25276,
  "20 char": 25268,
  "20 chara": 25260,
  "20 f": 28614,
  "20 fo": 28606,
  "20 for": 28598,
  "20 for t": 28579,
  "20 v": 15913,
  "20 va": 15832,
  "20 val": 15743,
  "20 valu": 15645,
  "20 value": 15542,
  "20)": 28625,
  "20):": 28620,
  "20.": 28223,
  "201": 22172,
  "201.": 22168,
  "206": 19549,
  "206.": 19546,
  "2062": 23753,
  "2062.": 23746,
  "2063": 31169,
  "2063.": 31167,
  "209": 30657,
  "209.": 30651,
  "20:": 29022,
  "20]": 30270,
  "20]:": 30265,
  "21": 1184,
  "210": 28690,
  "2103": 28684,
  "2103.": 28677,
  "214": 28844,
  "2144": 30288,
  "2144.": 30287,
  "2148": 28840,
  "2148.": 28835,
  "215": 17416,
  "2156": 17411,
  "2156.": 17404,
  "216": 29946,
  "216.": 29920,
  "2163": 31552,
  "2163.": 31550,
  "219": 21032,
  "2191": 21000,
  "2191.": 20957,
  "22": 1004,
  "22.": 28765,
  "220": 22171,
  "2201": 22167,
  "2201.": 22162,
  "221": 29945,
  "2216": 29919,
  "2216.": 29882,
  "223": 30496,
  "223.": 30493,
  "229": 21556,
  "229.": 21504,
  "23": 1077,
  "23.": 24325,
  "231": 29555,
  "2319": 29554,
  "2319.": 29553,
  "236": 30831,
  "2365": 30829,
  "2365.": 30827,
  "239": 29020,
  "2395": 29018,
  "2395.": 29016,
  "24": 1015,
  "24.": 26739,
  "248": 31018,
  "2484": 31016,
  "2484.": 31014,
  "25": 1093,
  "25.": 29697,
  "251": 1537,
  "252": 1549,
  "256": 28524,
  "2560": 28521,
  "2560.": 28516,
  "257": 30317,
  "2571": 30314,
  "2571.": 30311,
  "2576": 30513,
  "2576.": 30512,
  "259": 1538,
  "26": 990,
  "26.": 24139,
  "260": 30972,
  "2609": 30970,
  "2609.": 30969,
  "265": 29446,
  "265.": 30477,
  "2652": 29440,
  "2652.": 29433,
  "269": 25491,
  "2696": 25484,
  "2696 =": 25469,
  "2696 ==": 25455,
  "2696 f": 25460,
  "2696 fo": 25447,
  "2696 for": 25433,
  "2696.": 25477,
  "2697": 31714,
  "2697.": 31713,
  "2698": 29236,
  "2698.": 29202,
  "27": 1072,
  "270": 25113,
  "270.": 25094,
  "272": 31981,
  "2729": 31979,
  "2729.": 31978,
  "275": 30088,
  "2750": 30767,
  "2750.": 30766,
  "2756": 30083,
  "2756.": 30078,
  "28": 1016,
  "28.": 17735,
  "280": 28122,
  "280.": 28121,
  "281": 30044,
  "281.": 30039,
  "283": 29465,
  "2837": 29464,
  "2837.": 29463,
  "285": 31608,
  "285.": 31607,
  "2859": 31638,
  "2859.": 31637,
  "286": 30546,
  "2868": 30544,
  "2868.": 30541,
  "288": 31616,
  "288.": 31615,
  "29": 1181,
  "29.": 21557,
  "290": 28281,
  "2901": 28276,
  "2901.": 28272,
  "292": 24354,
  "2928": 24351,
  "2928.": 24349,
  "297": 26082,
  "297.": 26080,
  "2971": 26257,
  "2971.": 26256,
  "298": 18757,
  "298 =": 18708,
  "298 ==": 18668,
  "298 == 0": 18577,
  "298 f": 18695,
  "298 fo": 18652,
  "298 for": 18607,
  "298.": 18735,
  "2982": 23618,
  "2982.": 23561,
  "2])": 26744,
  "2]) f": 26724,
  "2]) fo": 26711,
  "2]) for": 26696,
  "2]:": 25584,
  "3": 22,
  "3 +": 19507,
  "3 + 1": 19432,
  "3 + 1)": 19375,
  "3 + 1))": 19314,
  "3 + s": 29627,
  "3 + su": 29621,
  "3 + sum": 29612,
  "3 + sum(": 29601,
  "3 =": 25395,
  "3 ==": 25391,
  "3 == 0": 25373,
  "3 == 0 e": 25349,
  "3 c": 23690,
  "3 ch": 23689,
  "3 cha": 23687,
  "3 char": 23685,
  "3 chara": 23682,
  "3 charac": 23678,
  "3 f": 19487,
  "3 fo": 19450,
  "3 for": 19397,
  "3 for t": 19270,
  "3 for th": 19197,
  "3 v": 17826,
  "3 va": 17818,
  "3 val": 17806,
  "3 valu": 17794,
  "3 value": 17777,
  "3 values": 17757,
  "3):": 28068,
  "3, 3": 19459,
  "3, 3)": 19407,
  "30": 992,
  "300": 25152,
  "3002": 25149,
  "3002.": 25145,
  "302": 28763,
  "302 =": 28905,
  "302 ==": 28899,
  "302 == 0": 28885,
  "302 f": 28902,
  "302 fo": 28895,
  "302 for": 28888,
  "302.": 28909,
  "3022": 28760,
  "3022.": 28757,
  "304": 22927,
  "304.": 22887,
  "308": 27225,
  "308.": 27172,
  "309": 28621,
  "3098": 28615,
  "3098.": 28608,
  "31": 1176,
  "31.": 23782,
  "316": 29684,
  "316.": 29682,
  "317": 26204,
  "3179": 26197,
  "3179 =": 26182,
  "3179 ==": 26168,
  "3179 f": 26173,
  "3179 fo": 26160,
  "3179 for": 26145,
  "3179.": 26190,
  "318": 31659,
  "3184": 31657,
  "3184.": 31656,
  "319": 22087,
  "319.": 22015,
  "32": 1166,
  "32.": 24885,
  "320": 30656,
  "3209": 30650,
  "3209.": 30638,
  "321": 1658,
  "326": 24138,
  "326.": 24136,
  "328": 17734,
  "328.": 17694,
  "3285": 31606,
  "3285.": 31604,
  "329": 1653,
  "33": 1022,
  "33.": 31735,
  "330": 22926,
  "3304": 22886,
  "3304.": 22837,
  "331": 31260,
  "331.": 31258,
  "338": 23251,
  "338.": 25985,
  "3382": 23211,
  "3382.": 23161,
  "3383": 30433,
  "3383.": 30430,
  "34": 996,
  "34.": 25428,
  "340": 27476,
  "3407": 27471,
  "3407.": 27466,
  "344": 28482,
  "3443": 28479,
  "3443.": 28475,
  "3449": 31951,
  "3449.": 31947,
  "346": 24252,
  "3462": 24245,
  "3462 =": 24230,
  "3462 ==": 24217,
  "3462 f": 24222,
  "3462 fo": 24208,
  "3462 for": 24192,
  "3462.": 24239,
  "35": 1167,
  "351": 1665,
  "354": 27321,
  "354.": 27318,
  "359": 1659,
  "36": 1017,
  "36.": 31074,
  "360": 29568,
  "360.": 29566,
  "361": 27418,
  "361.": 27411,
  "3616": 31131,
  "3616.": 31129,
  "362": 19144,
  "3628": 19101,
  "3628.": 19043,
  "365": 30832,
  "365.": 30830,
  "368": 24083,
  "368.": 24067,
  "369": 26138,
  "3694": 26132,
  "3694 =": 26119,
  "3694 ==": 26108,
  "3694 f": 26112,
  "3694 fo": 26100,
  "3694 for": 26087,
  "3694.": 26127,
  "37": 1109,
  "37 =": 29510,
  "37 ==": 29507,
  "37 == 0": 29494,
  "37 f": 29508,
  "37 fo": 29503,
  "37 for": 29497,
  "37 for t": 29482,
  "37.": 25185,
  "373": 31879,
  "3732": 31877,
  "3732.": 31872,
  "377": 22534,
  "3771": 22494,
  "3771.": 22437,
  "38": 995,
  "38.": 26035,
  "380": 30234,
  "380.": 30233,
  "381": 13935,
  "381.": 30959,
  "3815": 13826,
  "3815.": 13709,
  "382": 23252,
  "382.": 23212,
  "383": 30437,
  "383.": 30434,
  "3833": 31731,
  "3833.": 31728,
  "386": 24287,
  "386.": 24283,
  "39": 1179,
  "39.": 14711,
  "395": 29021,
  "395.": 29019,
  "398": 28318,
  "398.": 28315,
  "3982": 30465,
  "3982.": 30461,
  "399": 30989,
  "399.": 30988,
  "3])": 19504,
  "3]) f": 19423,
  "3]) fo": 19366,
  "3]) for": 19302,
  "3]:": 28285,
  "4": 23,
  "4 +": 30663,
  "4 + 1": 30647,
  "4 + 1)": 30633,
  "4 + 1))": 30620,
  "4 =": 26140,
  "4 ==": 26136,
  "4 == 0": 26121,
  "4 == 0 e": 26096,
  "4 c": 23781,
  "4 ch": 23779,
  "4 cha": 23777,
  "4 char": 23773,
  "4 chara": 23768,
  "4 charac": 23763,
  "4 e": 27220,
  "4 ed": 27165,
  "4 edg": 27090,
  "4 edge": 26996,
  "4 edges": 26890,
  "4 f": 14388,
  "4 fo": 14323,
  "4 for": 14252,
  "4 for t": 14091,
  "4 for th": 14006,
  "4 v": 16384,
  "4 va": 16334,
  "4 val": 16271,
  "4 valu": 16199,
  "4 value": 16119,
  "4 values": 16033,
  "4):": 26311,
  "4)]": 14425,
  "40": 1228,
  "40.": 23826,
  "401": 22563,
  "401.": 22562,
  "402": 30337,
  "402.": 30336,
  "405": 31838,
  "4054": 31834,
  "4054.": 31829,
  "407": 27477,
  "407.": 27472,
  "41": 1227,
  "41.": 30589,
  "415": 28927,
  "4154": 28925,
  "4154.": 28923,
  "417": 31810,
  "4170": 31807,
  "4170 =": 31797,
  "4170 ==": 31788,
  "4170 f": 31791,
  "4170 fo": 31781,
  "4170 for": 31771,
  "4170.": 31803,
  "42": 1199,
  "420": 19548,
  "420.": 28222,
  "4206": 19545,
  "4206.": 19540,
  "423": 31100,
  "423.": 31098,
  "43": 1235,
  "43.": 28484,
  "431": 29683,
  "4316": 29681,
  "4316.": 29680,
  "434": 25427,
  "434.": 25424,
  "436": 29567,
  "4360": 29565,
  "4360.": 29564,
  "4374.": 31999,
  "438": 27288,
  "438.": 27287,
  "44": 1204,
  "44.": 19490,
  "442": 31099,
  "4423": 31097,
  "4423.": 31095,
  "443": 28483,
  "443.": 28480,
  "449": 31767,
  "449.": 31763,
  "45": 1231,
  "45.": 17049,
  "453": 29542,
  "4537": 29538,
  "4537.": 29534,
  "457": 26219,
  "457.": 26218,
  "4574": 31236,
  "4574 =": 31224,
  "4574 ==": 31213,
  "4574 f": 31218,
  "4574 fo": 31207,
  "4574 for": 31195,
  "4574.": 31230,
  "46": 1182,
  "46 =": 21172,
  "46 ==": 21164,
  "46 == 0": 21139,
  "46 f": 21168,
  "46 fo": 21157,
  "46 for": 21145,
  "46 for t": 21116,
  "46.": 21176,
  "462": 24253,
  "462 =": 24241,
  "462 ==": 24231,
  "462 == 0": 24201,
  "462 f": 24236,
  "462 fo": 24223,
  "462 for": 24209,
  "462.": 24247,
  "466": 28032,
  "4662": 28030,
  "4662.": 28029,
  "467": 15469,
  "4676": 15357,
  "4676.": 15228,
  "468": 19758,
  "4687": 19740,
  "4687.": 19715,
  "469": 28777,
  "4691": 28775,
  "4691.": 28774,
  "47": 1229,
  "47.": 26308,
  "471": 30726,
  "471.": 30725,
  "475": 31563,
  "475.": 31562,
  "476": 25512,
  "4763": 30748,
  "4763.": 30745,
  "4765": 25511,
  "4765.": 25509,
  "477": 28573,
  "477.": 28571,
  "479": 28875,
  "4791": 28874,
  "4791.": 28871,
  "48": 1225,
  "48.": 28846,
  "480": 30266,
  "4804": 30574,
  "4804.": 30571,
  "4808": 30260,
  "4808.": 30255,
  "481": 26758,
  "4816": 26756,
  "4816.": 26755,
  "482": 25255,
  "4823": 25253,
  "4823.": 25251,
  "484": 31019,
  "484.": 31017,
  "486": 25171,
  "486.": 25169,
  "49": 1234,
  "49.": 30886,
  "493": 31968,
  "4934": 31966,
  "4934.": 31965,
  "499": 25331,
  "4994": 25326,
  "4994.": 25321,
  "4] f": 14350,
  "4] fo": 14281,
  "4] for": 14209,
  "4] for i": 14044,
  "4])": 30661,
  "4]) f": 30644,
  "4]) fo": 30631,
  "4]) for": 30616,
  "5": 24,
  "5 c": 27319,
  "5 ch": 27316,
  "5 cha": 27312,
  "5 char": 27307,
  "5 chara": 27300,
  "5 charac": 27294,
  "5 f": 13919,
  "5 fo": 13807,
  "5 for": 13687,
  "5 for t": 13439,
  "5 for th": 13318,
  "5 l": 20736,
  "5 li": 20699,
  "5 lin": 20648,
  "5 line": 20585,
  "5 lines": 20521,
  "5 v": 24883,
  "5 va": 24879,
  "5 val": 24874,
  "5 valu": 24867,
  "5 value": 24861,
  "5 values": 24853,
  "5) +": 19126,
  "5) + 1": 19003,
  "5) + 1)": 18924,
  "5) + 1):": 18841,
  "5):": 13960,
  "50": 993,
  "50 =": 22607,
  "50 ==": 22600,
  "50 == 0": 22584,
  "50 f": 22603,
  "50 fo": 22595,
  "50 for": 22587,
  "50 for t": 22568,
  "50.": 22611,
  "502": 30112,
  "5026": 30110,
  "5026.": 30108,
  "507": 24184,
  "507.": 24180,
  "51": 1175,
  "51.": 28093,
  "511": 31285,
  "511.": 31284,
  "514": 27444,
  "5144": 27441,
  "5144.": 27439,
  "517": 28079,
  "5179": 28078,
  "5179.": 28077,
  "52": 1163,
  "52.": 29286,
  "521": 1527,
  "526": 30478,
  "5265": 30476,
  "5265.": 30475,
  "528": 30043,
  "5281": 30038,
  "5281.": 30033,
  "529": 1574,
  "53": 1074,
  "532": 25580,
  "532.": 25574,
  "537": 29543,
  "537.": 29539,
  "54": 1001,
  "54 =": 30418,
  "54 ==": 30412,
  "54 == 0": 30390,
  "54 f": 30415,
  "54 fo": 30406,
  "54 for": 30395,
  "54 for t": 30371,
  "54.": 24831,
  "543": 30692,
  "543.": 30689,
  "547": 26307,
  "547.": 26301,
  "55": 1024,
  "55.": 19571,
  "551": 28092,
  "551.": 28090,
  "552": 30710,
  "552.": 30709,
  "554": 24830,
  "554 =": 30411,
  "554 ==": 30402,
  "554 == 0": 30379,
  "554 f": 30405,
  "554 fo": 30394,
  "554 for": 30383,
  "554.": 24783,
  "5543": 30688,
  "5543.": 30685,
  "56": 1020,
  "56.": 17418,
  "560": 28525,
  "560.": 28522,
  "566": 25392,
  "5663": 25385,
  "5663 =": 25371,
  "5663 ==": 25359,
  "5663 f": 25363,
  "5663 fo": 25352,
  "5663 for": 25339,
  "5663.": 25380,
  "57": 1080,
  "57.": 21102,
  "571": 30318,
  "571.": 30315,
  "574": 31242,
  "574 =": 31232,
  "574 ==": 31225,
  "574 == 0": 31203,
  "574 f": 31228,
  "574 fo": 31219,
  "574 for": 31208,
  "574.": 31238,
  "576": 29632,
  "576.": 30514,
  "5760": 29630,
  "5760.": 29625,
  "579": 31001,
  "5794": 30999,
  "5794.": 30998,
  "58": 994,
  "584": 23824,
  "5840": 23818,
  "5840.": 23813,
  "585": 28539,
  "585.": 28537,
  "589": 17347,
  "5890": 17317,
  "5890.": 17276,
  "59": 1174,
  "59.": 31148,
  "590": 24109,
  "5903": 24107,
  "5903.": 24105,
  "599": 23890,
  "5995": 23885,
  "5995.": 23877,
  "5]:": 28254,
  "6": 25,
  "6 =": 14717,
  "6 ==": 14683,
  "6 == 0": 14592,
  "6 == 0 e": 21126,
  "6 c": 31133,
  "6 ch": 31130,
  "6 cha": 31127,
  "6 char": 31123,
  "6 chara": 31117,
  "6 charac": 31111,
  "6 e": 28216,
  "6 ed": 28213,
  "6 edg": 28209,
  "6 edge": 28204,
  "6 edges": 28199,
  "6 f": 14701,
  "6 fo": 14664,
  "6 for": 14620,
  "6 for t": 14514,
  "6 for th": 14455,
  "6 l": 28799,
  "6 li": 28797,
  "6 lin": 28795,
  "6 line": 28791,
  "6 lines": 28786,
  "6 v": 22170,
  "6 va": 22165,
  "6 val": 22159,
  "6 valu": 22152,
  "6 value": 22145,
  "6 values": 22136,
  "6):": 24291,
  "60": 1256,
  "60.": 28526,
  "600": 30942,
  "6001": 30938,
  "6001.": 30934,
  "605": 19569,
  "6054": 27265,
  "6054.": 27263,
  "6055": 19567,
  "6055.": 19565,
  "609": 30973,
  "609.": 30971,
  "6096": 31688,
  "6096.": 31687,
  "61": 1260,
  "61.": 27419,
  "611": 18530,
  "6116": 18524,
  "6116.": 18517,
  "614": 30587,
  "6141": 30585,
  "6141.": 30584,
  "615": 25529,
  "615.": 25527,
  "6150": 28060,
  "6150.": 28056,
  "616": 31134,
  "616.": 31132,
  "62": 1247,
  "62 =": 24249,
  "62 ==": 24242,
  "62 == 0": 24218,
  "62 f": 24246,
  "62 fo": 24237,
  "62 for": 24224,
  "62 for t": 24193,
  "62.": 18438,
  "620": 30366,
  "620.": 30364,
  "624": 26738,
  "624.": 26730,
  "628": 19145,
  "628.": 19102,
  "63": 1253,
  "63 =": 25390,
  "63 ==": 25383,
  "63 == 0": 25360,
  "63 f": 25386,
  "63 fo": 25377,
  "63 for": 25365,
  "63 for t": 25340,
  "63.": 25394,
  "631": 22086,
  "631.": 23780,
  "6319": 22014,
  "6319.": 21929,
  "632": 24137,
  "6326": 24135,
  "6326.": 24133,
  "637": 27276,
  "637.": 27275,
  "64": 1251,
  "64.": 30882,
  "644": 19489,
  "644.": 19453,
  "646": 21175,
  "646 =": 21163,
  "646 ==": 21153,
  "646 == 0": 21125,
  "646 f": 21156,
  "646 fo": 21144,
  "646 for": 21131,
  "646.": 21170,
  "65": 1254,
  "65.": 17830,
  "652": 29447,
  "652.": 29441,
  "659": 31147,
  "659.": 31145,
  "66": 1003,
  "662": 28033,
  "662.": 28031,
  "663": 25393,
  "663 =": 25382,
  "663 ==": 25372,
  "663 == 0": 25348,
  "663 f": 25376,
  "663 fo": 25364,
  "663 for": 25353,
  "663.": 25388,
  "664": 19488,
  "6644": 19452,
  "6644.": 19400,
  "67": 1252,
  "67.": 31190,
  "670": 31496,
  "670.": 31473,
  "674": 28189,
  "6743": 29588,
  "6743.": 29586,
  "6746": 28184,
  "6746 =": 28172,
  "6746 ==": 28161,
  "6746 f": 28165,
  "6746 fo": 28154,
  "6746 for": 28142,
  "6746.": 28179,
  "676": 15470,
  "676.": 15358,
  "678": 29314,
  "678.": 29313,
  "68": 1255,
  "68.": 24084,
  "687": 19759,
  "687.": 19741,
  "689": 20390,
  "689.": 20302,
  "69": 1262,
  "69.": 29478,
  "690": 28443,
  "6906": 28434,
  "6906.": 28415,
  "691": 28778,
  "691.": 28776,
  "693": 31586,
  "6931": 31584,
  "6931.": 31582,
  "694": 26139,
  "694 =": 26129,
  "694 ==": 26120,
  "694 == 0": 26095,
  "694 f": 26124,
  "694 fo": 26113,
  "694 for": 26101,
  "694.": 26134,
  "696": 25492,
  "696 =": 25480,
  "696 ==": 25470,
  "696 == 0": 25443,
  "696 f": 25473,
  "696 fo": 25461,
  "696 for": 25448,
  "696.": 25487,
  "697": 31716,
  "697.": 31715,
  "698": 29261,
  "698.": 29237,
  "6]:": 27480,
  "7": 26,
  "7 =": 18534,
  "7 ==": 18528,
  "7 == 0": 18511,
  "7 == 0 e": 29487,
  "7 c": 19547,
  "7 ch": 19543,
  "7 cha": 19537,
  "7 char": 19530,
  "7 chara": 19522,
  "7 charac": 19514,
  "7 f": 17732,
  "7 fo": 17691,
  "7 for": 17638,
  "7 for t": 17514,
  "7 for th": 17446,
  "7 v": 24077,
  "7 va": 24059,
  "7 val": 24033,
  "7 valu": 23998,
  "7 value": 23958,
  "7 values": 23914,
  "7):": 22936,
  "7, 3": 31837,
  "7, 3)": 31833,
  "7, 4": 30654,
  "7, 4)": 30642,
  "70": 997,
  "70 =": 25238,
  "70 ==": 25231,
  "70 == 0": 25209,
  "70 f": 25234,
  "70 fo": 25225,
  "70 for": 25214,
  "70 for t": 25190,
  "70.": 25114,
  "700": 28217,
  "700.": 28215,
  "706": 24415,
  "706 =": 24403,
  "706 ==": 24394,
  "706 == 0": 24369,
  "706 f": 24397,
  "706 fo": 24386,
  "706 for": 24374,
  "706.": 24410,
  "71": 1206,
  "71.": 22536,
  "72": 1214,
  "72.": 15988,
  "722": 30495,
  "7223": 30492,
  "7223.": 30490,
  "726": 29369,
  "726.": 29368,
  "729": 18756,
  "729.": 31980,
  "7298": 18731,
  "7298 =": 18667,
  "7298 ==": 18623,
  "7298 f": 18651,
  "7298 fo": 18606,
  "7298 for": 18556,
  "7298.": 18700,
  "73": 1211,
  "73.": 26652,
  "730": 29671,
  "7308": 29669,
  "7308.": 29664,
  "732": 31880,
  "732.": 31878,
  "737": 31678,
  "737.": 31677,
  "739": 14710,
  "739.": 14677,
  "74": 1002,
  "74 =": 31240,
  "74 ==": 31233,
  "74 == 0": 31214,
  "74 f": 31237,
  "74 fo": 31229,
  "74 for": 31220,
  "74 for t": 31196,
  "74.": 31243,
  "743": 29590,
  "743.": 29589,
  "745": 17048,
  "745.": 16962,
  "746": 28190,
  "746 =": 28181,
  "746 ==": 28173,
  "746 == 0": 28150,
  "746 f": 28176,
  "746 fo": 28166,
  "746 for": 28155,
  "746.": 28186,
  "748": 25170,
  "7486": 25168,
  "7486.": 25166,
  "75": 1223,
  "75.": 31564,
  "750": 30769,
  "750.": 30768,
  "756": 30089,
  "756.": 30084,
  "76": 1019,
  "76.": 15471,
  "760": 29633,
  "760.": 29631,
  "761": 25528,
  "7615": 25526,
  "7615.": 25524,
  "762": 30365,
  "7620": 30363,
  "7620.": 30361,
  "763": 30751,
  "763.": 30749,
  "764": 30881,
  "764.": 30880,
  "765": 17829,
  "765.": 17823,
  "77": 1023,
  "77.": 28574,
  "771": 22535,
  "771.": 22495,
  "773": 14709,
  "7739": 14676,
  "7739.": 14633,
  "774": 17047,
  "7745": 16961,
  "7745.": 16858,
  "776": 17828,
  "7765": 17822,
  "7765.": 17814,
  "779": 25291,
  "7791": 25288,
  "7791.": 25285,
  "78": 999,
  "78.": 29315,
  "785": 30001,
  "785.": 29995,
  "787": 28642,
  "7879": 28640,
  "7879.": 28638,
  "79": 1213,
  "79 =": 26202,
  "79 ==": 26194,
  "79 == 0": 26169,
  "79 f": 26198,
  "79 fo": 26187,
  "79 for": 26175,
  "79 for t": 26146,
  "79.": 26206,
  "791": 25292,
  "791.": 25289,
  "794": 31002,
  "794.": 31000,
  "797": 25239,
  "7970": 25233,
  "7970 =": 25220,
  "7970 ==": 25208,
  "7970 f": 25212,
  "7970 fo": 25201,
  "7970 for": 25189,
  "7970.": 25228,
  "7]:": 24087,
  "8": 27,
  "8 +": 31882,
  "8 + s": 31875,
  "8 + su": 31869,
  "8 + sum": 31861,
  "8 + sum(": 31850,
  "8 =": 18763,
  "8 ==": 18741,
  "8 == 0": 18669,
  "8 == 0 e": 18578,
  "8 c": 21099,
  "8 ch": 21093,
  "8 cha": 21086,
  "8 char": 21079,
  "8 chara": 21070,
  "8 charac": 21061,
  "8 f": 18758,
  "8 fo": 18733,
  "8 for": 18697,
  "8 for t": 18608,
  "8 for th": 18558,
  "8 v": 29999,
  "8 va": 29993,
  "8 val": 29985,
  "8 valu": 29977,
  "8 value": 29968,
  "8 values": 29958,
  "8):": 30047,
  "80": 1082,
  "80.": 28123,
  "804": 30188,
  "804.": 30575,
  "8044": 30186,
  "8044.": 30184,
  "805": 29398,
  "8051": 29396,
  "8051.": 29393,
  "808": 30267,
  "808.": 30261,
  "81": 1208,
  "81.": 30045,
  "813": 31073,
  "8136": 31067,
  "8136.": 31061,
  "815": 13936,
  "815.": 13827,
  "816": 26759,
  "816.": 26757,
  "82": 1168,
  "82.": 23253,
  "820": 29004,
  "820.": 29002,
  "821": 1654,
  "823": 25256,
  "823.": 25254,
  "829": 1660,
  "83": 1215,
  "83.": 30438,
  "832": 24884,
  "832.": 24881,
  "833": 31734,
  "833.": 31732,
  "837": 25184,
  "837.": 25182,
  "84": 1083,
  "84.": 27990,
  "840": 23825,
  "840.": 23819,
  "844": 31766,
  "8449": 31762,
  "8449.": 31758,
  "85": 1216,
  "85.": 14395,
  "853": 30911,
  "8537": 30910,
  "8537.": 30908,
  "855": 30419,
  "8552": 30708,
  "8552.": 30707,
  "8554": 30414,
  "8554 =": 30401,
  "8554 ==": 30389,
  "8554 f": 30393,
  "8554 fo": 30382,
  "8554 for": 30370,
  "8554.": 30409,
  "859": 31640,
  "859.": 31639,
  "86": 1071,
  "86.": 24288,
  "864": 21174,
  "8646": 21167,
  "8646 =": 21152,
  "8646 ==": 21138,
  "8646 f": 21143,
  "8646 fo": 21130,
  "8646 for": 21115,
  "8646.": 21160,
  "865": 31146,
  "8659": 31144,
  "8659.": 31143,
  "868": 30547,
  "868.": 30545,
  "87": 1165,
  "87.": 19760,
  "879": 28643,
  "879.": 28641,
  "88": 1118,
  "88.": 31617,
  "89": 1218,
  "89.": 20391,
  "890": 17348,
  "890.": 17318,
  "895": 21100,
  "8957": 21096,
  "8957.": 21090,
  "897": 29343,
  "8971": 29341,
  "8971.": 29338,
  "899": 28800,
  "899.": 28798,
  "8]:": 30004,
  "9": 28,
  "9 +": 28447,
  "9 + s": 28420,
  "9 + su": 28398,
  "9 + sum": 28374,
  "9 + sum(": 28347,
  "9 =": 17420,
  "9 ==": 17413,
  "9 == 0": 17397,
  "9 == 0 e": 26156,
  "9 C": 23247,
  "9 CS": 23204,
  "9 CSV": 23148,
  "9 CSV r": 23023,
  "9 CSV ro": 22955,
  "9 c": 17345,
  "9 ch": 17314,
  "9 cha": 17272,
  "9 char": 17224,
  "9 chara": 17168,
  "9 charac": 17111,
  "9 f": 17415,
  "9 fo": 17408,
  "9 for": 17400,
  "9 for t": 17383,
  "9 for th": 17370,
  "9 v": 25151,
  "9 va": 25147,
  "9 val": 25142,
  "9 valu": 25137,
  "9 value": 25131,
  "9 values": 25124,
  "9):": 24328,
  "9, 2": 26733,
  "9, 2)": 26721,
  "90": 998,
  "90.": 17349,
  "901": 28282,
  "901.": 28277,
  "903": 24110,
  "903.": 24108,
  "906": 28444,
  "906.": 28435,
  "91": 1149,
  "91.": 21034,
  "911": 31707,
  "911.": 31705,
  "92": 1086,
  "921": 1559,
  "925": 1560,
  "928": 24355,
  "928.": 24352,
  "929": 1536,
  "93": 1075,
  "93.": 31926,
  "931": 31587,
  "931.": 31585,
  "934": 31969,
  "934.": 31967,
  "938": 30960,
  "9381": 30958,
  "9381.": 30956,
  "94": 1000,
  "94 =": 26135,
  "94 ==": 26130,
  "94 == 0": 26109,
  "94 f": 26133,
  "94 fo": 26125,
  "94 for": 26114,
  "94 for t": 26088,
  "94.": 25333,
  "95": 1087,
  "95.": 23892,
  "950": 24183,
  "9507": 24179,
  "9507.": 24173,
  "951": 1548,
  "951.": 30847,
  "952": 1561,
  "957": 21101,
  "957.": 21097,
  "959": 1573,
  "96": 1018,
  "96 =": 25489,
  "96 ==": 25481,
  "96 == 0": 25456,
  "96 f": 25485,
  "96 fo": 25474,
  "96 for": 25462,
  "96 for t": 25434,
  "96.": 25493,
  "962": 18437,
  "962.": 18356,
  "97": 1076,
  "97.": 26083,
  "970": 24414,
  "970 =": 25230,
  "970 ==": 25221,
  "970 == 0": 25198,
  "970 f": 25224,
  "970 fo": 25213,
  "970 for": 25202,
  "970.": 25236,
  "9706": 24407,
  "9706 =": 24393,
  "9706 ==": 24380,
  "9706 f": 24385,
  "9706 fo": 24373,
  "9706 for": 24360,
  "9706.": 24401,
  "971": 26259,
  "971.": 26258,
  "972": 28711,
  "972.": 28710,
  "9726": 29367,
  "9726.": 29365,
  "973": 26651,
  "973.": 26621,
  "98": 991,
  "98 =": 18740,
  "98 ==": 18709,
  "98 == 0": 18624,
  "98 f": 18732,
  "98 fo": 18696,
  "98 for": 18653,
  "98 for t": 18557,
  "98.": 18759,
  "982": 23657,
  "982.": 23619,
  "984": 27989,
  "984.": 27932,
  "99": 1025,
  "99.": 28801,
  "991": 31706,
  "9911": 31704,
  "9911.": 31702,
  "993": 31925,
  "993.": 31922,
  "994": 25332,
  "994.": 25327,
  "995": 23891,
  "995.": 23886,
  "998": 31893,
  "9984": 31892,
  "9984.": 31891,
  ":": 29,
  ": v": 15507,
  ": va": 15399,
  ": val": 15272,
  ": valu": 15131,
  ": value": 14982,
  ":10": 31955,
  ":10]": 31953,
  ":10]:": 31950,
  ":11": 29448,
  ":11]": 29443,
  ":11]:": 29436,
  ":12": 25582,
  ":12]": 25577,
  ":12]:": 25569,
  ":13": 28283,
  ":13]": 28279,
  ":13]:": 28275,
  ":15": 28252,
  ":15]": 28248,
  ":15]:": 28244,
  ":18": 30002,
  ":18]": 29997,
  ":18]:": 29990,
  ":20": 30269,
  ":20]": 30264,
  ":20]:": 30259,
  ":6]": 27479,
  ":6]:": 27475,
  ":7]": 24086,
  ":7]:": 24070,
  ":ca": 16000,
  ":cap": 15944,
  ":capa": 15868,
  ":capac": 15785,
  ":capaci": 15690,
  ":capacit": 15588,
  ":de": 27234,
  ":deg": 27189,
  ":degr": 27123,
  ":degre": 27037,
  ":degree": 26935,
  ":degree_": 26820,
  ":in": 14407,
  ":ind": 14347,
  ":inde": 14278,
  ":index": 14204,
  ":index +": 14039,
  ":li": 16410,
  ":lim": 16373,
  ":limi": 16321,
  ":limit": 16257,
  ":limit]": 16184,
  ":limit]:": 31315,
  ":limit]]": 16104,
  ":ma": 23662,
  ":max": 23630,
  ":max(": 23575,
  ":max(d": 29164,
  ":max(de": 29115,
  ":max(def": 29060,
  ":max(l": 23503,
  ":max(li": 23421,
  ":max(lim": 23333,
  ";": 30,
  "<": 31,
  "<BOS>": 1,
  "<EOS>": 2,
  "<PAD>": 0,
  "<UNK>": 3,
  "=": 32,
  "= '": 22540,
  "= 'a": 22499,
  "= 'ae": 22443,
  "= 'aei": 22374,
  "= 'aeio": 22297,
  "= 'aeiou": 22211,
  "= (": 26045,
  "= (l": 26001,
  "= (le": 25938,
  "= (lef": 25859,
  "= (left": 25761,
  "= 0": 14718,
  "= 0 e": 18710,
  "= 0 el": 18671,
  "= 0 els": 18626,
  "= 0 else": 18580,
  "= 0,": 22061,
  "= 0, 1": 21885,
  "= 0, m": 25845,
  "= 0, mi": 25746,
  "= 0, min": 25638,
  "= 0:": 19130,
  "= 1": 17354,
  "= 10": 23755,
  "= 11": 29695,
  "= 12": 27412,
  "= 13": 17824,
  "= 14": 27443,
  "= 15": 24882,
  "= 16": 22169,
  "= 17": 17696,
  "= 18": 19107,
  "= 19": 17324,
  "= 2": 15488,
  "= 20": 15935,
  "= 3": 24839,
  "= 4": 16406,
  "= 5": 20745,
  "= 6": 21037,
  "= 7": 19550,
  "= 8": 21103,
  "= 9": 22543,
  "= A": 18472,
  "= Ac": 18403,
  "= Acc": 18307,
  "= Accu": 18195,
  "= Accum": 18072,
  "= Accumu": 17939,
  "= N": 28007,
  "= No": 27956,
  "= Nod": 27886,
  "= Node": 27792,
  "= Node(": 27684,
  "= Node(v": 27568,
  "= Non": 27882,
  "= None": 27786,
  "= [": 15996,
  "= []": 15937,
  "= a": 18470,
  "= am": 18400,
  "= amo": 18302,
  "= amou": 18188,
  "= amoun": 18063,
  "= amount": 17928,
  "= d": 15491,
  "= de": 24796,
  "= deg": 27133,
  "= degr": 27048,
  "= degre": 26948,
  "= degree": 26834,
  "= deq": 24733,
  "= dequ": 24657,
  "= deque": 24571,
  "= deque(": 24478,
  "= di": 15379,
  "= dic": 15249,
  "= dict": 15106,
  "= dict(": 14954,
  "= dict(l": 14804,
  "= h": 28019,
  "= he": 27978,
  "= hea": 27914,
  "= head": 27822,
  "= head.": 27718,
  "= head.n": 27603,
  "= k": 15528,
  "= ke": 15430,
  "= key": 15305,
  "= key_": 15167,
  "= key_l": 15019,
  "= key_li": 14865,
  "= l": 17057,
  "= le": 16971,
  "= lef": 16869,
  "= left": 16749,
  "= left.": 16621,
  "= left.r": 16484,
  "= m": 19491,
  "= ma": 19454,
  "= max": 19402,
  "= max(": 19344,
  "= max(1": 19277,
  "= max(13": 19205,
  "= max(17": 30596,
  "= max(4": 31990,
  "= max(4,": 31984,
  "= max(7": 31820,
  "= max(7,": 31814,
  "= max(9": 26689,
  "= max(9,": 26672,
  "= mi": 26016,
  "= mid": 25955,
  "= midd": 25883,
  "= middl": 25790,
  "= middle": 25686,
  "= min": 26590,
  "= mini": 26532,
  "= minim": 26459,
  "= minimu": 26378,
  "= n": 23659,
  "= ne": 27954,
  "= nex": 27878,
  "= next": 27781,
  "= next_": 27672,
  "= next_n": 27552,
  "= np": 23625,
  "= np.": 23569,
  "= np.a": 23496,
  "= np.as": 23413,
  "= np.asa": 23324,
  "= nu": 25105,
  "= num": 25078,
  "= numb": 25046,
  "= numbe": 25002,
  "= number": 24948,
  "= p": 20401,
  "= pd": 20320,
  "= pd.": 20212,
  "= pd.D": 20093,
  "= pd.Da": 19966,
  "= pd.Dat": 19832,
  "= r": 17071,
  "= ri": 16988,
  "= rig": 16888,
  "= righ": 16770,
  "= right": 16642,
  "= right.": 16506,
  "= right:": 25649,
  "= s": 17053,
  "= se": 22073,
  "= sec": 21992,
  "= seco": 21905,
  "= secon": 21798,
  "= second": 21685,
  "= so": 17015,
  "= sor": 16915,
  "= sort": 16803,
  "= sorte": 16677,
  "= sorted": 16543,
  "= st": 16966,
  "= sta": 18286,
  "= star": 18170,
  "= start": 18044,
  "= str": 16863,
  "= str(": 16743,
  "= str(1": 16616,
  "= str(12": 16479,
  "= str(13": 31742,
  "= str(15": 29518,
  "= str(16": 30918,
  "= str(18": 28950,
  "= t": 26053,
  "= ta": 26014,
  "= tar": 25952,
  "= targ": 25877,
  "= targe": 25782,
  "= target": 25677,
  "= v": 19498,
  "= va": 19462,
  "= val": 19410,
  "= valu": 19352,
  "= value": 19285,
  "= values": 19213,
  "= {": 27231,
  "= {}": 27180,
  "=12": 18458,
  "=12)": 18379,
  "=12):": 18278,
  "=13": 28066,
  "=13)": 28063,
  "=13):": 28059,
  "=14": 26309,
  "=14)": 26303,
  "=14):": 26296,
  "=15": 13958,
  "=15)": 13851,
  "=15):": 13734,
  "=16": 25334,
  "=16)": 25329,
  "=16):": 25324,
  "=17": 22934,
  "=17)": 22896,
  "=17):": 22848,
  "=18": 30046,
  "=18)": 30041,
  "=18):": 30036,
  "=19": 28692,
  "=19)": 28687,
  "=19):": 28680,
  "=20": 28624,
  "=20)": 28619,
  "=20):": 28612,
  "=4)": 31076,
  "=4):": 31071,
  "=6)": 24290,
  "=6):": 24286,
  "=7)": 23828,
  "=7):": 23822,
  "=9)": 24327,
  "=9):": 24323,
  "== 0": 14684,
  "== 0 e": 18670,
  "== 0 el": 18625,
  "== 0 els": 18579,
  "== 0:": 19075,
  "== s": 17014,
  "== so": 16914,
  "== sor": 16802,
  "== sort": 16676,
  "== sorte": 16542,
  "== t": 26013,
  "== ta": 25951,
  "== tar": 25876,
  "== targ": 25781,
  "== targe": 25676,
  "=Fa": 19764,
  "=Fal": 19749,
  "=Fals": 19726,
  "=False": 19697,
  "=False)": 19661,
  "=False)[": 19616,
  "=No": 28002,
  "=Non": 27947,
  "=None": 27868,
  "=None)": 27770,
  "=None):": 27661,
  ">": 33,
  "?": 34,
  "@": 35,
  "A": 36,
  "Acc": 18440,
  "Accu": 18359,
  "Accum": 18254,
  "Accumu": 18137,
  "Accumul": 18012,
  "Accumula": 17879,
  "Ass": 13939,
  "Assi": 13830,
  "Assis": 13713,
  "Assist": 13590,
  "Assista": 13465,
  "Assistan": 13343,
  "B": 37,
  "BOS": 327,
  "C": 38,
  "CS": 1034,
  "CSV": 23248,
  "CSV r": 23149,
  "CSV ro": 23088,
  "CSV row": 23024,
  "CSV rows": 22956,
  "D": 39,
  "Dat": 773,
  "Data": 20324,
  "DataF": 20216,
  "DataFr": 20097,
  "DataFra": 19970,
  "DataFram": 19836,
  "DataFrame": 776,
  "Di": 1035,
  "Dic": 23261,
  "Dict": 23227,
  "DictR": 23179,
  "DictRe": 1049,
  "DictRea": 23058,
  "DictRead": 22991,
  "DictReader": 1052,
  "E": 40,
  "EOS": 328,
  "Er": 529,
  "Err": 22099,
  "Erro": 22029,
  "Error": 531,
  "Error(": 21846,
  "Error(\"": 21738,
  "Error(\"c": 21622,
  "Error(\"v": 24916,
  "Error)": 22808,
  "Error):": 22745,
  "Error,": 22803,
  "Error, V": 22673,
  "F": 41,
  "Fal": 602,
  "Fals": 19112,
  "False": 603,
  "False)": 19698,
  "False)[": 19662,
  "False)[:": 19617,
  "Fib": 958,
  "Fibo": 22004,
  "Fibon": 21919,
  "Fibona": 21816,
  "Fibonac": 21705,
  "Fibonacc": 21591,
  "Fra": 20408,
  "Fram": 20328,
  "Frame": 774,
  "Frame b": 26419,
  "Frame by": 26336,
  "Frame(": 20100,
  "Frame(r": 19974,
  "Frame(ro": 19840,
  "G": 42,
  "H": 43,
  "I": 44,
  "IO": 1036,
  "IO(": 23274,
  "IO(t": 23243,
  "IO(te": 23198,
  "IO(tex": 23140,
  "IO(text": 23078,
  "IO(text)": 23010,
  "J": 45,
  "K": 46,
  "L": 47,
  "M": 48,
  "N": 49,
  "Nod": 27992,
  "Node": 27935,
  "Node(": 27887,
  "Node(v": 27793,
  "Node(va": 27685,
  "Node(val": 27569,
  "Node:": 27853,
  "Non": 28003,
  "None": 1065,
  "None)": 27869,
  "None):": 27771,
  "None:": 27904,
  "Num": 21541,
  "NumP": 21486,
  "NumPy": 21422,
  "NumPy a": 23378,
  "NumPy an": 23289,
  "NumPy f": 29102,
  "NumPy fo": 29045,
  "NumPy m": 21269,
  "NumPy me": 21185,
  "O": 50,
  "O(t": 23275,
  "O(te": 23244,
  "O(tex": 23199,
  "O(text": 23141,
  "O(text)": 23079,
  "O(text))": 23011,
  "OS": 281,
  "P": 51,
  "Pan": 20386,
  "Pand": 20292,
  "Panda": 20180,
  "Pandas": 20057,
  "Pandas D": 26329,
  "Pandas f": 19791,
  "Pandas v": 20771,
  "Py": 865,
  "Py a": 23607,
  "Py an": 23543,
  "Py and": 23467,
  "Py and r": 23291,
  "Py f": 29234,
  "Py fo": 29200,
  "Py for": 29157,
  "Py for t": 29047,
  "Py m": 21487,
  "Py me": 21424,
  "Py mea": 21350,
  "Py mean": 21272,
  "Pyt": 13887,
  "Pyth": 13767,
  "Pytho": 13648,
  "Python": 13523,
  "Python e": 16050,
  "Python f": 13277,
  "Q": 52,
  "R": 53,
  "Re": 1037,
  "Rea": 23264,
  "Read": 23230,
  "Reade": 23183,
  "Reader": 23125,
  "Reader(": 23062,
  "Reader(i": 22995,
  "S": 54,
  "SV r": 23205,
  "SV ro": 23150,
  "SV row": 23089,
  "SV rows": 23025,
  "St": 1038,
  "Str": 23271,
  "Stri": 23239,
  "Strin": 23193,
  "String": 1050,
  "StringI": 23072,
  "StringIO": 1053,
  "T": 55,
  "Tr": 900,
  "Tru": 19167,
  "True": 19133,
  "Ty": 783,
  "Typ": 22942,
  "Type": 22905,
  "TypeE": 22857,
  "TypeEr": 22800,
  "TypeErr": 22736,
  "TypeErro": 22670,
  "TypeError": 795,
  "U": 56,
  "Us": 329,
  "Use": 13881,
  "User": 13762,
  "V": 57,
  "V r": 23249,
  "V ro": 23206,
  "V row": 23151,
  "V rows": 23090,
  "V rows i": 22957,
  "Val": 22096,
  "Valu": 22025,
  "Value": 608,
  "ValueE": 21841,
  "ValueEr": 21733,
  "ValueErr": 21617,
  "W": 58,
  "Wr": 330,
  "Wri": 13883,
  "Writ": 13763,
  "Write": 338,
  "Write a": 13395,
  "X": 59,
  "Y": 60,
  "Z": 61,
  "[": 62,
  "[\"": 982,
  "[\"v": 20431,
  "[\"va": 20357,
  "[\"val": 20256,
  "[\"valu": 20142,
  "[\"value": 20017,
  "[\"value\"": 19886,
  "[:": 387,
  "[:1": 25581,
  "[:10": 31952,
  "[:10]": 31949,
  "[:10]:": 31946,
  "[:11": 29442,
  "[:11]": 29435,
  "[:11]:": 29428,
  "[:12": 25576,
  "[:12]": 25568,
  "[:12]:": 25560,
  "[:13": 28278,
  "[:13]": 28274,
  "[:13]:": 28270,
  "[:15": 28247,
  "[:15]": 28243,
  "[:15]:": 28239,
  "[:18": 29996,
  "[:18]": 29989,
  "[:18]:": 29982,
  "[:2": 30268,
  "[:20": 30263,
  "[:20]": 30258,
  "[:20]:": 30253,
  "[:6": 27478,
  "[:6]": 27474,
  "[:6]:": 27469,
  "[:7": 24085,
  "[:7]": 24069,
  "[:7]:": 24048,
  "[:c": 15999,
  "[:ca": 15943,
  "[:cap": 15867,
  "[:capa": 15784,
  "[:capac": 15689,
  "[:capaci": 15587,
  "[:d": 27233,
  "[:de": 27188,
  "[:deg": 27122,
  "[:degr": 27036,
  "[:degre": 26934,
  "[:degree": 26819,
  "[:l": 16409,
  "[:li": 16372,
  "[:lim": 16320,
  "[:limi": 16256,
  "[:limit": 16183,
  "[:limit]": 16103,
  "[:m": 23661,
  "[:ma": 23629,
  "[:max": 23574,
  "[:max(": 23502,
  "[:max(d": 29114,
  "[:max(de": 29059,
  "[:max(l": 23420,
  "[:max(li": 23332,
  "[ar": 29267,
  "[arr": 29246,
  "[arra": 29214,
  "[array": 29173,
  "[fr": 26659,
  "[fra": 26631,
  "[fram": 26586,
  "[frame": 26527,
  "[frame[": 26453,
  "[frame[\"": 26372,
  "[in": 14403,
  "[ind": 14341,
  "[inde": 14273,
  "[index": 14198,
  "[index:": 14117,
  "[index:i": 14034,
  "[le": 27237,
  "[lef": 27194,
  "[left": 27129,
  "[left]": 27044,
  "[left] =": 26829,
  "[mi": 26050,
  "[mid": 26009,
  "[midd": 25947,
  "[middl": 25871,
  "[middle": 25775,
  "[middle]": 25670,
  "[qu": 24842,
  "[que": 24801,
  "[queu": 24740,
  "[queue": 24666,
  "[queue.": 24581,
  "[queue.p": 24489,
  "[ri": 27244,
  "[rig": 27208,
  "[righ": 27146,
  "[right": 27065,
  "[right]": 26967,
  "[va": 14400,
  "[val": 14337,
  "[valu": 14268,
  "[value": 14192,
  "[value *": 16091,
  "[values": 14110,
  "[values[": 14027,
  "\\": 63,
  "]": 64,
  "] =": 26052,
  "] = d": 27132,
  "] = de": 27047,
  "] = deg": 26947,
  "] = degr": 26833,
  "] ==": 26012,
  "] == t": 25875,
  "] == ta": 25780,
  "] == tar": 25675,
  "] f": 14410,
  "] fo": 14351,
  "] for": 14282,
  "] for i": 14127,
  "] for in": 14045,
  "])": 711,
  "]) f": 19471,
  "]) fo": 19424,
  "]) for": 19367,
  "]) for i": 19232,
  "]):": 1066,
  "].": 853,
  "].h": 26663,
  "].he": 26637,
  "].hea": 26595,
  "].head": 26538,
  "].head(": 26466,
  "].head(d": 26386,
  "].s": 20435,
  "].su": 20363,
  "].sum": 20263,
  "].sum(": 20150,
  "].sum()": 20025,
  "].sum().": 19894,
  "].t": 29270,
  "].to": 29250,
  "].tol": 29219,
  "].toli": 29179,
  "].tolis": 29131,
  "].tolist": 29077,
  "]:": 569,
  "]]": 755,
  "^": 65,
  "_": 66,
  "_ i": 22122,
  "_ in": 22064,
  "_ in r": 21888,
  "_ in ra": 21778,
  "_ in ran": 21664,
  "_(s": 18450,
  "_(se": 18371,
  "_(sel": 18268,
  "_(self": 18151,
  "_(self,": 18026,
  "__": 469,
  "__(": 617,
  "__(s": 18370,
  "__(se": 18267,
  "__(sel": 18150,
  "__(self": 18025,
  "__(self,": 17892,
  "__i": 18445,
  "__in": 18365,
  "__ini": 18261,
  "__init": 18144,
  "__init_": 18019,
  "__init__": 17886,
  "_co": 24081,
  "_com": 24064,
  "_comp": 24040,
  "_compl": 24007,
  "_comple": 23969,
  "_complet": 23925,
  "_di": 20442,
  "_dic": 20372,
  "_dict": 20273,
  "_dict(": 20160,
  "_dict(\"": 20873,
  "_dict(\"r": 20812,
  "_dict()": 20035,
  "_in": 18446,
  "_ini": 18366,
  "_init": 18262,
  "_init_": 18145,
  "_init__": 18020,
  "_init__(": 17887,
  "_li": 15484,
  "_lim": 15371,
  "_limi": 15242,
  "_limit": 15099,
  "_limit =": 14797,
  "_limit)": 19990,
  "_limit).": 26394,
  "_limit,": 29119,
  "_limit]": 26936,
  "_limit]:": 26822,
  "_limit}": 15020,
  "_lis": 27407,
  "_list": 27394,
  "_lists": 27377,
  "_lists p": 27336,
  "_no": 27998,
  "_nod": 27943,
  "_node": 27863,
  "_node=": 27765,
  "_node=N": 27656,
  "_node=No": 27536,
  "_py": 16400,
  "_pyt": 16362,
  "_pyth": 16306,
  "_pytho": 16240,
  "_python": 16163,
  "`": 67,
  "a": 68,
  "a N": 21540,
  "a Nu": 21485,
  "a Num": 21421,
  "a NumP": 21347,
  "a NumPy": 21268,
  "a P": 13886,
  "a Pa": 26609,
  "a Pan": 26557,
  "a Pand": 26490,
  "a Panda": 26413,
  "a Pandas": 26328,
  "a Py": 13766,
  "a Pyt": 13647,
  "a Pyth": 13522,
  "a Pytho": 13399,
  "a Python": 13276,
  "a c": 16386,
  "a cl": 18326,
  "a cla": 18220,
  "a clas": 18100,
  "a class": 17969,
  "a co": 16337,
  "a com": 16277,
  "a comp": 16207,
  "a compa": 16127,
  "a compac": 16043,
  "a f": 20742,
  "a fi": 20709,
  "a fil": 20660,
  "a file": 20602,
  "a file f": 20468,
  "a fu": 24052,
  "a fun": 24024,
  "a func": 23986,
  "a funct": 23945,
  "a functi": 23902,
  "a l": 14376,
  "a li": 14308,
  "a lin": 27841,
  "a link": 27737,
  "a linke": 27622,
  "a linked": 27498,
  "a lis": 14237,
  "a list": 14158,
  "a list i": 13989,
  "a m": 26647,
  "a mi": 26614,
  "a min": 26564,
  "a mini": 26500,
  "a minim": 26424,
  "a minimu": 26341,
  "a n": 18748,
  "a nu": 18718,
  "a num": 18682,
  "a numb": 18637,
  "a numbe": 18593,
  "a number": 18540,
  "a s": 15982,
  "a so": 25969,
  "a sor": 25900,
  "a sort": 25813,
  "a sorte": 25711,
  "a sorted": 25601,
  "a st": 15919,
  "a sta": 15840,
  "a stac": 15752,
  "a stack": 15656,
  "a str": 17261,
  "a stri": 17210,
  "a strin": 17154,
  "a string": 17095,
  "a t": 26023,
  "a ta": 25964,
  "a tar": 25895,
  "a targ": 25806,
  "a targe": 25705,
  "a target": 25594,
  "a th": 29227,
  "a thr": 29190,
  "a thre": 29146,
  "a thres": 29094,
  "a thresh": 29037,
  "a w": 19478,
  "a wi": 19440,
  "a win": 19387,
  "a wind": 19329,
  "a windo": 19259,
  "a window": 19187,
  "a(0": 21044,
  "a(0)": 21014,
  "a(0).": 20975,
  "a(0).t": 20925,
  "a(0).to": 20870,
  "a(0).to_": 20808,
  "aFr": 20407,
  "aFra": 20327,
  "aFram": 20219,
  "aFrame": 775,
  "aFrame b": 26335,
  "aFrame(": 19973,
  "aFrame(r": 19839,
  "ab": 532,
  "abe": 22526,
  "abet": 22484,
  "abet a": 22353,
  "abet ae": 22275,
  "abet aei": 22192,
  "abo": 13966,
  "abov": 13859,
  "above": 689,
  "above a": 29090,
  "above\"": 13619,
  "above\" i": 13370,
  "abs": 808,
  "abs(": 17717,
  "abs(v": 17669,
  "abs(va": 17612,
  "abs(val": 17550,
  "abs(valu": 17481,
  "ac": 379,
  "acc": 959,
  "acci": 22009,
  "acci n": 21820,
  "acci nu": 21709,
  "acci num": 21595,
  "accu": 18332,
  "accum": 18225,
  "accumu": 18106,
  "accumul": 17976,
  "accumula": 17843,
  "ace": 560,
  "ace m": 20939,
  "ace mi": 20885,
  "ace mis": 20826,
  "ace miss": 20762,
  "ace(": 16980,
  "ace(\"": 16901,
  "ace(\" \"": 16660,
  "ace(\" \",": 16526,
  "ace(i": 16878,
  "ace(ig": 16759,
  "ace(ign": 16630,
  "ace(igno": 16494,
  "aci": 15992,
  "acit": 15932,
  "acity": 15855,
  "acity 8": 27631,
  "acity =": 15672,
  "acity]": 15786,
  "acity])": 24576,
  "acity]):": 27565,
  "acity]:": 15692,
  "ack": 473,
  "ack 1": 22833,
  "ack 13": 29303,
  "ack 13 f": 29288,
  "ack 14": 28505,
  "ack 14 f": 28487,
  "ack 16": 30565,
  "ack 16 f": 30549,
  "ack 17": 22774,
  "ack 17 f": 22639,
  "ack 18": 30533,
  "ack 18 f": 30516,
  "ack 2": 28832,
  "ack 20": 28825,
  "ack 20 f": 28804,
  "ack 4": 31057,
  "ack 4 f": 31039,
  "ack 4 fo": 31030,
  "ack 7": 23810,
  "ack 7 f": 23793,
  "ack 7 fo": 23785,
  "ack =": 15858,
  "ack = [": 15676,
  "ack = []": 15573,
  "ack f": 15841,
  "ack fo": 15754,
  "ack for": 15659,
  "ack.": 15947,
  "ack.a": 15872,
  "ack.ap": 15790,
  "ack.app": 15695,
  "ack.appe": 15593,
  "ack.p": 15893,
  "ack.po": 15815,
  "ack.pop": 15724,
  "ack.pop(": 15625,
  "ack:": 15957,
  "acks": 15926,
  "acks p": 15760,
  "acks pa": 15666,
  "acks par": 15564,
  "act": 678,
  "act P": 16280,
  "act Py": 16211,
  "act Pyt": 16131,
  "act Pyth": 16047,
  "acte": 15340,
  "acter": 15209,
  "acter i": 22328,
  "acter in": 22246,
  "acter.": 22386,
  "acter.l": 22310,
  "acter.lo": 22225,
  "acters": 15066,
  "acters f": 14762,
  "acto": 25081,
  "actor": 25050,
  "actori": 25007,
  "actoria": 24954,
  "actorial": 24892,
  "ad": 485,
  "ad =": 27955,
  "ad = N": 27784,
  "ad = No": 27675,
  "ad = Nod": 27566,
  "ad = Non": 27556,
  "ad = h": 27820,
  "ad = he": 27716,
  "ad = hea": 27601,
  "ad f": 20706,
  "ad fr": 20656,
  "ad fro": 20597,
  "ad from": 20532,
  "ad i": 27965,
  "ad is": 27898,
  "ad is n": 27698,
  "ad is no": 27582,
  "ad(": 20415,
  "ad(d": 26638,
  "ad(de": 26597,
  "ad(def": 26541,
  "ad(defa": 26470,
  "ad(defau": 26390,
  "ad(g": 20336,
  "ad(gr": 20230,
  "ad(gro": 20112,
  "ad(grou": 19987,
  "ad(group": 19854,
  "ad(r": 21005,
  "ad(ro": 20963,
  "ad(row": 20913,
  "ad(row_": 20856,
  "ad(row_l": 20793,
  "ad)": 28010,
  "ad.": 28017,
  "ad.n": 27979,
  "ad.ne": 27916,
  "ad.nex": 27825,
  "ad.next": 27721,
  "ad.v": 27976,
  "ad.va": 27911,
  "ad.val": 27818,
  "ad.valu": 27712,
  "ad.value": 27597,
  "add": 630,
  "add(": 18388,
  "add(s": 18290,
  "add(se": 18174,
  "add(sel": 18048,
  "add(self": 17913,
  "add(v": 18316,
  "add(va": 18205,
  "add(val": 18083,
  "add(valu": 17950,
  "ade": 23265,
  "ader": 1048,
  "ader(": 23185,
  "ader(i": 23127,
  "ader(io": 23064,
  "ader(io.": 22997,
  "adth": 1145,
  "aei": 22528,
  "aeio": 22487,
  "aeiou": 1078,
  "aeiou w": 22279,
  "aeiou wi": 22195,
  "aeiou'": 22376,
  "aeiouy": 1062,
  "aeiouy w": 23830,
  "aeiouy'": 23857,
  "af": 784,
  "afe": 22917,
  "afel": 22873,
  "afely": 22823,
  "afely w": 22699,
  "afely wi": 22628,
  "aft": 17037,
  "afte": 16942,
  "after": 16837,
  "after i": 16583,
  "after ig": 16443,
  "ag": 933,
  "agg": 20374,
  "aggr": 20277,
  "aggre": 20165,
  "aggreg": 20040,
  "aggrega": 19908,
  "aggregat": 19772,
  "agr": 17034,
  "agra": 16938,
  "agram": 16832,
  "agrams": 16708,
  "agrams a": 16438,
  "ai": 889,
  "ain": 669,
  "aini": 15326,
  "ainin": 15192,
  "aining": 15047,
  "aining k": 14745,
  "aining v": 29715,
  "ais": 749,
  "aise": 22022,
  "aise V": 21837,
  "aise Va": 21729,
  "aise Val": 21613,
  "al": 261,
  "al v": 25086,
  "al va": 25054,
  "al val": 25012,
  "al valu": 24959,
  "al value": 24897,
  "al\"": 13980,
  "ale": 17729,
  "ale =": 17642,
  "ale = 1": 17519,
  "ale = 14": 27425,
  "ale = 17": 17451,
  "ale = 9": 28989,
  "aled": 17685,
  "aled b": 17574,
  "aled by": 17509,
  "alg": 15462,
  "algo": 15346,
  "algor": 15217,
  "algori": 15073,
  "algorit": 14921,
  "algorith": 14772,
  "ali": 28440,
  "aliz": 28429,
  "alize": 28409,
  "alized": 28388,
  "alized a": 28335,
  "all": 22537,
  "allb": 22880,
  "allba": 22831,
  "allbac": 22771,
  "allback": 787,
  "allo": 22496,
  "allow": 22438,
  "allowe": 22369,
  "allowed": 22292,
  "alp": 22523,
  "alph": 22481,
  "alpha": 22420,
  "alphab": 22350,
  "alphabe": 22272,
  "alphabet": 22189,
  "als": 19154,
  "als =": 31441,
  "als = [": 31360,
  "als = []": 31312,
  "als.": 31485,
  "als.a": 31451,
  "als.ap": 31414,
  "als.app": 31372,
  "als.appe": 31325,
  "alse": 19113,
  "alse)": 19727,
  "alse)[": 19699,
  "alse)[:": 19663,
  "alse)[:l": 19618,
  "alu": 13952,
  "alue": 268,
  "alue %": 14589,
  "alue % 1": 18489,
  "alue % 2": 25438,
  "alue % 3": 26150,
  "alue % 4": 28453,
  "alue % 5": 22571,
  "alue % 6": 14480,
  "alue % 7": 18572,
  "alue % 8": 21120,
  "alue % 9": 17375,
  "alue % d": 18842,
  "alue *": 16249,
  "alue * v": 16092,
  "alue **": 18919,
  "alue +": 18184,
  "alue + 1": 24939,
  "alue +=": 18059,
  "alue =": 18167,
  "alue = s": 17906,
  "alue = v": 27541,
  "alue e": 25028,
  "alue ex": 24980,
  "alue exc": 24923,
  "alue f": 15132,
  "alue fo": 14984,
  "alue for": 14831,
  "alue i": 15142,
  "alue in": 14994,
  "alue\"": 20258,
  "alue\"]": 20145,
  "alue\"].": 20020,
  "alue\"].s": 19889,
  "alue)": 14634,
  "alue))": 17615,
  "alue)))": 17554,
  "alue):": 14584,
  "alue,": 13726,
  "alue, b": 13477,
  "alue, bo": 13354,
  "alue, d": 22715,
  "alue, de": 22646,
  "alue, h": 27688,
  "alue, he": 27573,
  "alue, n": 27647,
  "alue, ne": 27527,
  "alueE": 21940,
  "alueEr": 21842,
  "alueErr": 21734,
  "alueErro": 21618,
  "alues": 14262,
  "alues =": 19281,
  "alues a": 29777,
  "alues at": 29722,
  "alues b": 19913,
  "alues by": 19778,
  "alues f": 23959,
  "alues fo": 23916,
  "alues i": 19628,
  "alues if": 29752,
  "alues in": 19580,
  "alues s": 17985,
  "alues st": 17852,
  "alues u": 15647,
  "alues up": 24899,
  "alues us": 15545,
  "alues w": 16120,
  "alues wi": 16035,
  "alues)": 14186,
  "alues) -": 19240,
  "alues))": 21335,
  "alues)))": 21255,
  "alues))]": 23342,
  "alues),": 14147,
  "alues):": 14104,
  "alues)[": 23414,
  "alues)[:": 23326,
  "alues,": 19687,
  "alues, r": 19603,
  "alues, s": 23314,
  "alues, t": 25628,
  "alues.": 21892,
  "alues.a": 21784,
  "alues.ap": 21670,
  "alues:": 18198,
  "alues[": 14193,
  "alues[:": 15684,
  "alues[:1": 25537,
  "alues[:2": 30237,
  "alues[:6": 27449,
  "alues[:7": 23934,
  "alues[:c": 15582,
  "alues[:l": 16098,
  "alues[i": 14112,
  "alues[in": 14029,
  "alues[m": 25770,
  "alues[mi": 25665,
  "ame": 13928,
  "ame =": 20210,
  "ame = p": 19963,
  "ame = pd": 19829,
  "ame b": 26561,
  "ame by": 26496,
  "ame by a": 26337,
  "ame(": 20329,
  "ame(r": 20221,
  "ame(ro": 20102,
  "ame(row": 19976,
  "ame(rows": 19842,
  "ame.": 20342,
  "ame.f": 20966,
  "ame.fi": 20917,
  "ame.fil": 20861,
  "ame.fill": 20799,
  "ame.g": 20238,
  "ame.gr": 20122,
  "ame.gro": 19998,
  "ame.grou": 19866,
  "ame[": 26628,
  "ame[\"": 26587,
  "ame[\"v": 26529,
  "ame[\"va": 26456,
  "ame[\"val": 26375,
  "ame[f": 26583,
  "ame[fr": 26524,
  "ame[fra": 26450,
  "ame[fram": 26369,
  "amet": 13820,
  "amete": 13702,
  "ameter": 13580,
  "ameter s": 13333,
  "amo": 18465,
  "amou": 18393,
  "amoun": 18296,
  "amount": 18181,
  "amount)": 18056,
  "amount):": 17921,
  "ams": 17036,
  "ams a": 16834,
  "ams af": 16710,
  "ams aft": 16580,
  "ams afte": 16441,
  "an": 299,
  "an a": 28424,
  "an ac": 28402,
  "an acc": 28378,
  "an accu": 28352,
  "an accum": 28324,
  "an ar": 29184,
  "an arr": 29138,
  "an arra": 29084,
  "an array": 29028,
  "an i": 13788,
  "an in": 13666,
  "an int": 13544,
  "an inte": 13420,
  "an integ": 13298,
  "an w": 21489,
  "an wi": 21427,
  "an wit": 21354,
  "an with": 21275,
  "an(": 21570,
  "an(n": 21523,
  "an(np": 21465,
  "an(np.": 21397,
  "an(np.a": 21323,
  "an(np.as": 21241,
  "ana": 17032,
  "anag": 16936,
  "anagr": 16830,
  "anagra": 16706,
  "anagram": 16576,
  "anagrams": 16437,
  "and": 17340,
  "and k": 17264,
  "and ke": 17214,
  "and kee": 17159,
  "and keep": 17101,
  "and r": 23545,
  "and re": 23468,
  "and ret": 23382,
  "and retu": 23293,
  "and t": 27834,
  "and tr": 27729,
  "and tra": 27614,
  "and trav": 27489,
  "anda": 20293,
  "andas": 592,
  "andas D": 26414,
  "andas Da": 26330,
  "andas a": 19946,
  "andas as": 19815,
  "andas f": 19927,
  "andas fo": 19792,
  "andas p": 19934,
  "andas pa": 19801,
  "andas v": 20835,
  "andas va": 20772,
  "ang": 14415,
  "ange": 14359,
  "ange(": 14291,
  "ange(0": 14219,
  "ange(0,": 14138,
  "ange(2": 18989,
  "ange(2,": 18910,
  "ange(c": 21889,
  "ange(co": 21780,
  "ange(cou": 21666,
  "ange(l": 19368,
  "ange(le": 19305,
  "ange(len": 19235,
  "ans": 16378,
  "ansf": 16328,
  "ansfo": 16265,
  "ansfor": 759,
  "ansform": 16111,
  "ant": 334,
  "ap": 374,
  "ap 1": 23881,
  "ap 10": 23873,
  "ap 10 f": 23851,
  "ap 10 fo": 23838,
  "ap 11": 31166,
  "ap 11 f": 31157,
  "ap 11 fo": 31152,
  "ap 13": 24103,
  "ap 13 f": 24094,
  "ap 13 fo": 24090,
  "ap 14": 29390,
  "ap 14 f": 29378,
  "ap 14 fo": 29372,
  "ap 15": 31580,
  "ap 15 f": 31571,
  "ap 15 fo": 31567,
  "ap 17": 29585,
  "ap 17 f": 29576,
  "ap 17 fo": 29571,
  "ap 3": 29340,
  "ap 3 f": 29330,
  "ap 3 fo": 29324,
  "ap 3 for": 29318,
  "ap 6": 30313,
  "ap 6 f": 30303,
  "ap 6 fo": 30297,
  "ap 6 for": 30291,
  "ap 9": 22492,
  "ap 9 f": 22364,
  "ap 9 fo": 22287,
  "ap 9 for": 22202,
  "apa": 15990,
  "apac": 544,
  "apaci": 15853,
  "apacit": 15767,
  "apacity": 545,
  "apacity]": 15589,
  "ape": 23652,
  "ape f": 23557,
  "ape fo": 23482,
  "ape for": 23399,
  "ape v": 23537,
  "ape va": 23459,
  "ape val": 23372,
  "ape valu": 23283,
  "ape(": 23642,
  "ape(s": 23592,
  "ape(sh": 23524,
  "ape(sha": 23444,
  "ape(shap": 23358,
  "ape)": 23622,
  "ape).": 23596,
  "ape).s": 23529,
  "ape).sh": 23450,
  "ape).sha": 23364,
  "ape):": 23566,
  "aph": 715,
  "aph d": 27080,
  "aph de": 26986,
  "aph deg": 26878,
  "aph degr": 26766,
  "aphs": 27170,
  "aphs p": 27003,
  "aphs pa": 26899,
  "aphs par": 26788,
  "app": 16006,
  "appe": 466,
  "appen": 15876,
  "append": 468,
  "append(": 15699,
  "append(f": 21675,
  "append(h": 27588,
  "append(r": 31327,
  "append(s": 15616,
  "append(v": 15597,
  "ar": 280,
  "ara": 307,
  "arac": 15338,
  "aract": 15207,
  "aracte": 15064,
  "aracter": 14911,
  "aracter.": 22223,
  "aracters": 14761,
  "aram": 13819,
  "arame": 13700,
  "aramet": 13578,
  "aramete": 13453,
  "arameter": 13332,
  "arc": 26032,
  "arch": 839,
  "arch f": 25832,
  "arch fo": 25731,
  "arch for": 25623,
  "are": 13903,
  "are a": 13664,
  "are an": 13542,
  "are an i": 13295,
  "are ana": 16573,
  "are anag": 16434,
  "ares": 721,
  "ares u": 23992,
  "ares up": 23952,
  "arg": 26024,
  "arge": 25966,
  "arget": 510,
  "arget i": 25706,
  "arget in": 25596,
  "arget)": 25841,
  "arget):": 25743,
  "arget:": 25878,
  "ari": 14696,
  "arie": 15315,
  "aries": 741,
  "aries f": 23033,
  "aries fo": 22966,
  "aries w": 14882,
  "aries wh": 14734,
  "aris": 14660,
  "ariso": 14613,
  "arison": 14563,
  "arison f": 14449,
  "ark": 17043,
  "arke": 16954,
  "arker": 940,
  "arker 1": 16597,
  "arker 12": 16458,
  "arker 13": 31736,
  "arker 15": 29512,
  "arker 16": 30912,
  "arker 18": 28944,
  "arr": 21576,
  "arra": 21530,
  "array": 781,
  "array =": 23409,
  "array a": 29085,
  "array ab": 29029,
  "array(": 21405,
  "array(v": 21330,
  "array(va": 21249,
  "array.": 23516,
  "array.r": 23435,
  "array.re": 23348,
  "array[": 29168,
  "array[a": 29120,
  "array[ar": 29066,
  "arrays": 23729,
  "arrays p": 23699,
  "ars": 22915,
  "arse": 712,
  "arse a": 22755,
  "arse an": 22692,
  "arse u": 23085,
  "arse up": 23019,
  "art": 426,
  "art=": 18376,
  "art=1": 18275,
  "art=12": 18159,
  "art=12)": 18034,
  "art=12):": 17901,
  "art=13": 28051,
  "art=13)": 28047,
  "art=13):": 28040,
  "art=16": 25315,
  "art=16)": 25309,
  "art=16):": 25301,
  "art=17": 31279,
  "art=17)": 31274,
  "art=17):": 31267,
  "art=18": 30027,
  "art=18)": 30021,
  "art=18):": 30013,
  "art=2": 28609,
  "art=20": 28602,
  "art=20)": 28594,
  "art=20):": 28584,
  "art=6": 24279,
  "art=6)": 24275,
  "art=6):": 24268,
  "art=9": 24316,
  "art=9)": 24312,
  "art=9):": 24305,
  "arti": 18344,
  "artin": 18238,
  "arting": 18120,
  "arting a": 17858,
  "ary": 398,
  "ary 1": 13684,
  "ary 12": 29653,
  "ary 12 f": 29635,
  "ary 14": 26280,
  "ary 14 f": 26261,
  "ary 15": 13562,
  "ary 15 f": 13314,
  "ary 19": 28664,
  "ary 19 f": 28645,
  "ary 7": 24169,
  "ary 7 f": 24151,
  "ary 7 fo": 24142,
  "ary e": 13746,
  "ary el": 13626,
  "ary els": 13501,
  "ary else": 13379,
  "ary s": 25911,
  "ary se": 25828,
  "ary sea": 25727,
  "ary sear": 25618,
  "ary=": 13848,
  "ary=1": 13731,
  "ary=12": 29658,
  "ary=12)": 29651,
  "ary=12):": 29643,
  "ary=14": 26286,
  "ary=14)": 26278,
  "ary=14):": 26270,
  "ary=15": 13610,
  "ary=15)": 13485,
  "ary=15):": 13363,
  "ary=19": 28670,
  "ary=19)": 28662,
  "ary=19):": 28654,
  "ary=7": 24174,
  "ary=7)": 24167,
  "ary=7):": 24159,
  "as": 538,
  "as D": 26610,
  "as Da": 26559,
  "as Dat": 26493,
  "as Data": 26417,
  "as DataF": 26333,
  "as a": 20307,
  "as as": 20198,
  "as as p": 19948,
  "as as pd": 19817,
  "as f": 20295,
  "as fo": 20182,
  "as for": 20060,
  "as for t": 19794,
  "as n": 21509,
  "as np": 21450,
  "as p": 20299,
  "as pa": 20188,
  "as par": 20067,
  "as para": 19937,
  "as param": 19804,
  "as pd": 20199,
  "as v": 20993,
  "as va": 20948,
  "as val": 20896,
  "as valu": 20838,
  "as value": 20775,
  "asa": 21574,
  "asar": 21528,
  "asarr": 21471,
  "asarra": 21403,
  "asarray": 867,
  "asarray(": 21247,
  "ass": 480,
  "ass A": 18251,
  "ass Ac": 18134,
  "ass Acc": 18009,
  "ass Accu": 17876,
  "ass N": 27850,
  "ass No": 27751,
  "ass Nod": 27640,
  "ass Node": 27518,
  "ass t": 18221,
  "ass to": 18102,
  "ass to a": 17838,
  "ast": 811,
  "ast 1": 29880,
  "ast 11": 31651,
  "ast 11 f": 31642,
  "ast 12": 29835,
  "ast 12 f": 29728,
  "ast 14": 30763,
  "ast 14 f": 30753,
  "ast 16": 30283,
  "ast 16 f": 30273,
  "ast 2": 30359,
  "ast 2 f": 30698,
  "ast 2 fo": 30694,
  "ast 20": 30354,
  "ast 20 f": 30339,
  "ast 4": 30876,
  "ast 4 f": 30864,
  "ast 4 fo": 30859,
  "ast 7": 30181,
  "ast 7 f": 30168,
  "ast 7 fo": 30162,
  "at": 286,
  "at 1": 18348,
  "at 12": 18241,
  "at 12 f": 17996,
  "at 12 fo": 17862,
  "at 13": 28054,
  "at 13 f": 28042,
  "at 13 fo": 28035,
  "at 16": 25318,
  "at 16 f": 25303,
  "at 16 fo": 25294,
  "at 17": 31281,
  "at 17 f": 31269,
  "at 17 fo": 31262,
  "at 18": 30030,
  "at 18 f": 30015,
  "at 18 fo": 30006,
  "at 2": 28613,
  "at 20": 28605,
  "at 20 f": 28587,
  "at 20 fo": 28577,
  "at 3": 29628,
  "at 3 f": 29614,
  "at 3 fo": 29603,
  "at 3 for": 29593,
  "at 6": 24282,
  "at 6 f": 24270,
  "at 6 fo": 24262,
  "at 6 for": 24257,
  "at 8": 31876,
  "at 8 f": 31863,
  "at 8 fo": 31852,
  "at 8 for": 31843,
  "at 9": 24319,
  "at 9 f": 24307,
  "at 9 fo": 24299,
  "at 9 for": 24294,
  "at a": 20275,
  "at ag": 20163,
  "at agg": 20038,
  "at aggr": 19906,
  "at aggre": 19770,
  "at b": 27918,
  "at bu": 27828,
  "at bui": 27724,
  "at buil": 27608,
  "at build": 27484,
  "at c": 13780,
  "at ch": 16808,
  "at che": 16685,
  "at chec": 16553,
  "at check": 16415,
  "at co": 13659,
  "at com": 13537,
  "at comp": 13413,
  "at compa": 13291,
  "at compl": 23894,
  "at compu": 21178,
  "at cou": 20577,
  "at coun": 20512,
  "at count": 20446,
  "at d": 19079,
  "at de": 19016,
  "at det": 18940,
  "at dete": 18857,
  "at deter": 18770,
  "at f": 14642,
  "at fi": 14594,
  "at fil": 26478,
  "at filt": 26401,
  "at filte": 26314,
  "at fin": 19315,
  "at find": 19245,
  "at fix": 14543,
  "at fix a": 28319,
  "at fix t": 14428,
  "at l": 29915,
  "at le": 29877,
  "at lea": 29832,
  "at leas": 29781,
  "at least": 29726,
  "at m": 15307,
  "at me": 15170,
  "at mer": 15023,
  "at merg": 14869,
  "at merge": 14722,
  "at mo": 15200,
  "at mos": 15056,
  "at most": 14904,
  "at p": 22869,
  "at pa": 22815,
  "at par": 22753,
  "at pars": 22689,
  "at parse": 22617,
  "at pr": 24688,
  "at pro": 24603,
  "at proc": 24512,
  "at proce": 24418,
  "at r": 15901,
  "at re": 15824,
  "at rem": 29812,
  "at remo": 29758,
  "at remov": 29700,
  "at rep": 20882,
  "at repl": 20822,
  "at repla": 20757,
  "at res": 23454,
  "at resh": 23368,
  "at resha": 23278,
  "at ret": 17560,
  "at retu": 17492,
  "at retur": 17423,
  "at rev": 15734,
  "at reve": 15635,
  "at rever": 15533,
  "at s": 14304,
  "at sp": 14233,
  "at spl": 14153,
  "at spli": 14070,
  "at split": 13984,
  "at sq": 24025,
  "at squ": 23988,
  "at squa": 23948,
  "at squar": 23905,
  "at t": 16324,
  "at tr": 16261,
  "at tra": 16188,
  "at tran": 16107,
  "at trans": 16022,
  "at u": 18324,
  "at us": 18216,
  "at use": 18097,
  "at use a": 17833,
  "at(": 21564,
  "at(n": 21516,
  "at(np": 21457,
  "at(np.": 21389,
  "at(np.m": 21315,
  "at(np.me": 21233,
  "ata": 20405,
  "ataF": 20325,
  "ataFr": 20217,
  "ataFra": 20098,
  "ataFram": 19971,
  "ataFrame": 19837,
  "ate": 640,
  "ate v": 18231,
  "ate va": 18111,
  "ate val": 17982,
  "ate valu": 17848,
  "ate(": 15390,
  "ate(r": 15262,
  "ate(ri": 15120,
  "ate(rig": 14969,
  "ate(righ": 14818,
  "ate_": 16359,
  "ate_p": 16303,
  "ate_py": 16237,
  "ate_pyt": 16160,
  "ate_pyth": 16078,
  "ates": 29910,
  "ates w": 29823,
  "ates wh": 29770,
  "ates whi": 29713,
  "ation": 892,
  "ato": 18441,
  "ator": 18361,
  "ator =": 18192,
  "ator = A": 17935,
  "ator i": 28379,
  "ator in": 28354,
  "ator ini": 28327,
  "ator(": 18308,
  "ator()": 18197,
  "ator.": 18311,
  "ator.a": 18200,
  "ator.ad": 18078,
  "ator.add": 17945,
  "ator.v": 18211,
  "ator.va": 18091,
  "ator.val": 17960,
  "ator:": 18257,
  "aul": 22932,
  "ault": 542,
  "ault=": 22844,
  "ault=1": 22786,
  "ault=13": 29300,
  "ault=13)": 29293,
  "ault=14": 28502,
  "ault=14)": 28494,
  "ault=16": 30562,
  "ault=16)": 30555,
  "ault=17": 22722,
  "ault=17)": 22654,
  "ault=18": 30530,
  "ault=18)": 30522,
  "ault=2": 28829,
  "ault=20": 28821,
  "ault=20)": 28811,
  "ault=4": 31054,
  "ault=4)": 31046,
  "ault=4):": 31037,
  "ault=7": 23807,
  "ault=7)": 23800,
  "ault=7):": 23791,
  "ault_": 26578,
  "ault_l": 26518,
  "ault_li": 26444,
  "ault_lim": 26363,
  "ave": 27986,
  "aver": 27927,
  "avers": 27839,
  "averse": 27734,
  "averse a": 27493,
  "ax": 407,
  "ax(": 19492,
  "ax(1": 19456,
  "ax(13": 19404,
  "ax(13,": 19346,
  "ax(13, 3": 19206,
  "ax(17": 30639,
  "ax(17,": 30628,
  "ax(17, 4": 30597,
  "ax(4, 3": 31991,
  "ax(4, 3)": 31986,
  "ax(7": 31835,
  "ax(7,": 31831,
  "ax(7, 3": 31821,
  "ax(7, 3)": 31816,
  "ax(9": 26731,
  "ax(9,": 26719,
  "ax(9, 2": 26690,
  "ax(9, 2)": 26674,
  "ax(d": 29241,
  "ax(de": 29208,
  "ax(def": 29166,
  "ax(defa": 29117,
  "ax(defau": 29062,
  "ax(l": 23631,
  "ax(li": 23577,
  "ax(lim": 23505,
  "ax(limi": 23423,
  "ax(limit": 23335,
  "ax(s": 19465,
  "ax(su": 19415,
  "ax(sum": 19358,
  "ax(sum(": 19292,
  "ax(sum(v": 19221,
  "axi": 19146,
  "axim": 19104,
  "aximu": 19045,
  "aximum": 18972,
  "aximum 1": 24908,
  "aximum 9": 25396,
  "aximum =": 18806,
  "aximum s": 19178,
  "aximum\"": 21764,
  "aximum\")": 21649,
  "aximum)": 22338,
  "aximum:": 18895,
  "ay =": 23624,
  "ay = n": 23494,
  "ay = np": 23411,
  "ay = np.": 23322,
  "ay a": 29224,
  "ay ab": 29186,
  "ay abo": 29141,
  "ay abov": 29088,
  "ay above": 29032,
  "ay(": 21578,
  "ay(v": 21532,
  "ay(va": 21475,
  "ay(val": 21408,
  "ay(valu": 21333,
  "ay(value": 21252,
  "ay.": 23666,
  "ay.r": 23639,
  "ay.re": 23588,
  "ay.res": 23519,
  "ay.resh": 23438,
  "ay.resha": 23351,
  "ay[": 29265,
  "ay[a": 29244,
  "ay[ar": 29212,
  "ay[arr": 29171,
  "ay[arra": 29123,
  "ay[array": 29069,
  "ays": 23756,
  "ays p": 23742,
  "ays pa": 23731,
  "ays par": 23717,
  "ays para": 23702,
  "b": 69,
  "bac": 22924,
  "back": 785,
  "back 1": 22773,
  "back 13": 29295,
  "back 14": 28496,
  "back 16": 30557,
  "back 17": 22709,
  "back 18": 30524,
  "back 2": 28824,
  "back 20": 28814,
  "back 4": 31048,
  "back 4 f": 31029,
  "back 7": 23802,
  "back 7 f": 23784,
  "beg": 13921,
  "begi": 13811,
  "begin": 13693,
  "beginn": 13570,
  "beginne": 13445,
  "beginner": 13324,
  "bel": 687,
  "belo": 13871,
  "below": 691,
  "below\"": 13634,
  "below\" i": 13385,
  "ber": 514,
  "ber i": 18685,
  "ber in": 25036,
  "ber in r": 24932,
  "ber is": 18640,
  "ber is d": 18543,
  "bers": 22012,
  "bers f": 21825,
  "bers fo": 21715,
  "bers for": 21601,
  "bet": 22527,
  "bet a": 22424,
  "bet ae": 22354,
  "bet aei": 22276,
  "bet aeio": 22193,
  "bil": 14693,
  "bili": 14654,
  "bilit": 14607,
  "bility": 14555,
  "bility c": 14440,
  "bin": 26027,
  "bina": 25975,
  "binar": 25910,
  "binary": 25826,
  "binary s": 25615,
  "ble": 18754,
  "ble b": 18691,
  "ble by": 18647,
  "ble by 1": 24187,
  "ble by 2": 25429,
  "ble by 3": 26141,
  "ble by 4": 31191,
  "ble by 5": 22564,
  "ble by 6": 28138,
  "ble by 7": 18552,
  "ble by 8": 21111,
  "ble by 9": 24356,
  "ble\"": 18738,
  "ble\" i": 18662,
  "ble\" if": 18619,
  "bon": 22082,
  "bona": 22006,
  "bonac": 21921,
  "bonacc": 21818,
  "bonacci": 21707,
  "bor": 802,
  "bou": 13914,
  "boun": 13800,
  "bound": 13680,
  "bounda": 13558,
  "boundar": 13433,
  "boundary": 13311,
  "bov": 13967,
  "bove": 1114,
  "bove a": 29143,
  "bove a t": 29033,
  "bove\"": 13741,
  "bove\" i": 13493,
  "bove\" if": 13371,
  "bs(": 17748,
  "bs(v": 17718,
  "bs(va": 17670,
  "bs(val": 17613,
  "bs(valu": 17551,
  "bs(value": 17482,
  "bu": 620,
  "bug": 14704,
  "bugg": 14668,
  "buggi": 14625,
  "buggin": 14574,
  "bugging": 14521,
  "bui": 27982,
  "buil": 27920,
  "build": 27830,
  "build a": 27610,
  "build an": 27485,
  "by": 1120,
  "by 1": 17688,
  "by 11": 30146,
  "by 111": 30136,
  "by 1112": 30126,
  "by 13": 24233,
  "by 134": 24220,
  "by 1346": 24205,
  "by 13462": 24190,
  "by 136": 26110,
  "by 1369": 26097,
  "by 13694": 26085,
  "by 137": 29495,
  "by 137 f": 29480,
  "by 14": 27436,
  "by 14 f": 27427,
  "by 14 fo": 27421,
  "by 17": 17636,
  "by 17 f": 17512,
  "by 17 fo": 17443,
  "by 2": 25482,
  "by 26": 25471,
  "by 269": 25458,
  "by 2696": 25446,
  "by 3": 26195,
  "by 30": 28900,
  "by 302": 28894,
  "by 302 f": 28878,
  "by 31": 26184,
  "by 317": 26171,
  "by 3179": 26159,
  "by 4": 31234,
  "by 41": 31799,
  "by 417": 31789,
  "by 4170": 31780,
  "by 45": 31226,
  "by 457": 31216,
  "by 4574": 31206,
  "by 5": 22601,
  "by 50": 22594,
  "by 50 f": 22577,
  "by 50 fo": 22566,
  "by 56": 25374,
  "by 566": 25361,
  "by 5663": 25351,
  "by 6": 28182,
  "by 67": 28174,
  "by 674": 28163,
  "by 6746": 28153,
  "by 7": 18729,
  "by 72": 18693,
  "by 729": 18649,
  "by 7298": 18605,
  "by 79": 25222,
  "by 797": 25210,
  "by 7970": 25200,
  "by 8": 21165,
  "by 85": 30403,
  "by 855": 30391,
  "by 8554": 30381,
  "by 86": 21154,
  "by 864": 21141,
  "by 8646": 21129,
  "by 9": 24405,
  "by 9 f": 28991,
  "by 9 fo": 28985,
  "by 9 for": 28979,
  "by 97": 24395,
  "by 970": 24383,
  "by 9706": 24372,
  "by a": 26613,
  "by a m": 26498,
  "by a mi": 26422,
  "by a min": 26339,
  "by g": 20284,
  "by gr": 20172,
  "by gro": 20047,
  "by grou": 19917,
  "by group": 19782,
  "by(": 20423,
  "by(\"": 20349,
  "by(\"g": 20246,
  "by(\"gr": 20131,
  "by(\"gro": 20006,
  "by(\"grou": 19875,
  "c": 70,
  "c p": 14392,
  "c pa": 14328,
  "c par": 14258,
  "c para": 14182,
  "c param": 14098,
  "c parame": 14014,
  "cal": 565,
  "cale": 17684,
  "cale =": 17582,
  "cale = 1": 17450,
  "cale = 9": 28983,
  "caled": 17633,
  "caled b": 17508,
  "caled by": 17440,
  "cap": 15989,
  "cap 1": 23872,
  "cap 10": 23862,
  "cap 10 f": 23837,
  "cap 11": 31162,
  "cap 11 f": 31151,
  "cap 13": 24099,
  "cap 13 f": 24089,
  "cap 14": 29384,
  "cap 14 f": 29371,
  "cap 15": 31576,
  "cap 15 f": 31566,
  "cap 17": 29581,
  "cap 17 f": 29570,
  "cap 3": 29335,
  "cap 3 f": 29323,
  "cap 3 fo": 29317,
  "cap 6": 30308,
  "cap 6 f": 30296,
  "cap 6 fo": 30290,
  "cap 9": 22433,
  "cap 9 f": 22286,
  "cap 9 fo": 22201,
  "capa": 15930,
  "capac": 15852,
  "capaci": 15766,
  "capacit": 15671,
  "capacity": 714,
  "cat": 812,
  "cate": 29909,
  "cates": 29870,
  "cates w": 29769,
  "cates wh": 29712,
  "cc": 364,
  "cci": 22084,
  "cci n": 21923,
  "cci nu": 21821,
  "cci num": 21710,
  "cci numb": 21596,
  "ccu": 18422,
  "ccum": 18333,
  "ccumu": 18226,
  "ccumul": 366,
  "ccumula": 17977,
  "ccumulat": 367,
  "ccumulator": 376,
  "ce": 977,
  "ce m": 20987,
  "ce mi": 20940,
  "ce mis": 20886,
  "ce miss": 20827,
  "ce missi": 20763,
  "ce(": 17065,
  "ce(\"": 16999,
  "ce(\" \"": 16787,
  "ce(\" \",": 16661,
  "ce(i": 16981,
  "ce(ig": 16879,
  "ce(ign": 16760,
  "ce(igno": 16631,
  "ce(ignor": 16495,
  "cee": 22107,
  "ceed": 22040,
  "ceeds": 21955,
  "ceeds c": 21750,
  "ceeds co": 21634,
  "cep": 22939,
  "cept": 22901,
  "cept (": 22795,
  "cept (T": 22731,
  "cept (Ty": 22665,
  "ces": 24819,
  "cess": 24764,
  "cess u": 24607,
  "cess up": 24516,
  "ch": 837,
  "ch f": 25982,
  "ch fo": 25917,
  "ch for": 25834,
  "ch for t": 25624,
  "cha": 15456,
  "char": 15337,
  "chara": 15205,
  "charac": 15062,
  "charact": 14909,
  "characte": 14760,
  "character": 922,
  "che": 17018,
  "chec": 16920,
  "check": 16810,
  "check w": 16555,
  "check wh": 16416,
  "chu": 14381,
  "chun": 14314,
  "chunk": 14244,
  "chunks": 14167,
  "chunks o": 13997,
  "ci n": 22010,
  "ci nu": 21924,
  "ci num": 21822,
  "ci numb": 21711,
  "ci numbe": 21597,
  "cit": 15993,
  "city": 15933,
  "city 8": 27745,
  "city 8 f": 27511,
  "city =": 15769,
  "city = 1": 28546,
  "city = 2": 15570,
  "city = 3": 24473,
  "city = 5": 26063,
  "city = 8": 27553,
  "city]": 15869,
  "city])": 24662,
  "city]):": 27682,
  "city]:": 15787,
  "ck": 604,
  "ck 1": 22883,
  "ck 13": 29309,
  "ck 13 f": 29296,
  "ck 13 fo": 29289,
  "ck 14": 28513,
  "ck 14 f": 28497,
  "ck 14 fo": 28488,
  "ck 16": 30570,
  "ck 16 f": 30558,
  "ck 16 fo": 30550,
  "ck 17": 22834,
  "ck 17 f": 22710,
  "ck 17 fo": 22640,
  "ck 18": 30539,
  "ck 18 f": 30525,
  "ck 18 fo": 30517,
  "ck 2": 28838,
  "ck 20": 28833,
  "ck 20 f": 28815,
  "ck 20 fo": 28805,
  "ck 4": 31065,
  "ck 4 f": 31049,
  "ck 4 fo": 31040,
  "ck 4 for": 31031,
  "ck 7": 23817,
  "ck 7 f": 23803,
  "ck 7 fo": 23794,
  "ck 7 for": 23786,
  "ck =": 15936,
  "ck = [": 15773,
  "ck = []": 15677,
  "ck f": 15922,
  "ck fo": 15842,
  "ck for": 15755,
  "ck for t": 15555,
  "ck w": 16922,
  "ck wh": 16812,
  "ck whe": 16689,
  "ck whet": 16558,
  "ck wheth": 16419,
  "ck.": 16003,
  "ck.a": 15948,
  "ck.ap": 15873,
  "ck.app": 15791,
  "ck.appe": 15696,
  "ck.appen": 15594,
  "ck.p": 15963,
  "ck.po": 15894,
  "ck.pop": 15816,
  "ck.pop(": 15725,
  "ck.pop()": 15626,
  "ck:": 16012,
  "cks": 15986,
  "cks p": 15848,
  "cks pa": 15761,
  "cks par": 15667,
  "cks para": 15565,
  "cla": 18418,
  "clas": 18327,
  "class": 614,
  "class A": 18007,
  "class Ac": 17874,
  "class N": 27638,
  "class No": 27516,
  "class t": 17970,
  "class to": 17837,
  "cod": 24078,
  "code": 24060,
  "code_": 24036,
  "code_c": 24003,
  "code_co": 23965,
  "code_com": 23921,
  "col": 24833,
  "coll": 24786,
  "colle": 24718,
  "collec": 24640,
  "collect": 24551,
  "collecti": 24459,
  "com": 719,
  "comp": 13782,
  "compa": 13661,
  "compac": 16208,
  "compact": 16128,
  "compar": 13539,
  "compare": 13415,
  "compari": 14503,
  "comparis": 14446,
  "compl": 24018,
  "comple": 23980,
  "complet": 23939,
  "complete": 23896,
  "completi": 23926,
  "completion": 725,
  "compu": 21416,
  "comput": 21342,
  "compute": 21263,
  "con": 595,
  "cond": 19095,
  "cond =": 21882,
  "cond = 0": 21659,
  "cond = s": 21681,
  "cond,": 21993,
  "cond, f": 21800,
  "cond, fi": 21687,
  "condi": 19036,
  "condit": 18963,
  "conditi": 18883,
  "conditio": 18799,
  "conf": 22044,
  "confi": 21959,
  "config": 21863,
  "configu": 21755,
  "configur": 21639,
  "cor": 21052,
  "cord": 849,
  "cords": 850,
  "cords i": 26408,
  "cords in": 26323,
  "cords\"": 20936,
  "cords\")": 20881,
  "cou": 20734,
  "coun": 20695,
  "count": 676,
  "count e": 21744,
  "count ex": 21628,
  "count g": 26871,
  "count gr": 26760,
  "count u": 20514,
  "count up": 20447,
  "count v": 22259,
  "count vo": 22174,
  "count)": 21834,
  "count):": 21725,
  "csv": 1039,
  "csv.": 23223,
  "csv.D": 23175,
  "csv.Di": 23118,
  "csv.Dic": 23054,
  "csv.Dict": 22987,
  "ct": 290,
  "ct P": 16340,
  "ct Py": 16281,
  "ct Pyt": 16212,
  "ct Pyth": 16132,
  "ct Pytho": 16048,
  "ct(": 15492,
  "ct(\"": 21017,
  "ct(\"r": 20979,
  "ct(\"re": 20930,
  "ct(\"rec": 20876,
  "ct(\"reco": 20815,
  "ct()": 20373,
  "ct(l": 15381,
  "ct(le": 15252,
  "ct(lef": 15109,
  "ct(left": 14957,
  "ct(left)": 14807,
  "ct.": 29947,
  "ct.f": 29924,
  "ct.fr": 29889,
  "ct.fro": 29846,
  "ct.from": 29798,
  "ct.fromk": 29742,
  "ctR": 23262,
  "ctRe": 1044,
  "ctRea": 23181,
  "ctRead": 23123,
  "ctReade": 23060,
  "ctReader": 22993,
  "cte": 15459,
  "cter": 478,
  "cter i": 22402,
  "cter in": 22329,
  "cter.": 22454,
  "cter.l": 22387,
  "cter.lo": 22311,
  "cter.low": 22226,
  "cters": 15210,
  "cters f": 14913,
  "cters fo": 14763,
  "cti": 13894,
  "ctio": 13775,
  "ction": 304,
  "ction t": 13407,
  "ction th": 13285,
  "ctiona": 15031,
  "ctionar": 14878,
  "ctionari": 14730,
  "ctionaries": 742,
  "ctions": 874,
  "ctions i": 24462,
  "ctions p": 17764,
  "cto": 25107,
  "ctor": 25082,
  "ctori": 25051,
  "ctoria": 25008,
  "ctorial": 24955,
  "cum": 18423,
  "cumu": 18334,
  "cumul": 18227,
  "cumula": 18107,
  "cumulat": 17978,
  "cumulate": 17844,
  "cumulato": 17880,
  "cur": 1150,
  "d": 71,
  "d =": 17052,
  "d = '": 22442,
  "d = 'a": 22373,
  "d = 'ae": 22296,
  "d = 'aei": 22210,
  "d = 0": 21978,
  "d = 0,": 21884,
  "d = 0, 1": 21661,
  "d = N": 27881,
  "d = No": 27785,
  "d = Nod": 27683,
  "d = Node": 27567,
  "d = Non": 27676,
  "d = None": 27557,
  "d = h": 27913,
  "d = he": 27821,
  "d = hea": 27717,
  "d = head": 27602,
  "d = s": 16862,
  "d = se": 21904,
  "d = sec": 21797,
  "d = seco": 21684,
  "d = st": 16742,
  "d = str": 16615,
  "d = str(": 16478,
  "d a": 27984,
  "d an": 27923,
  "d and": 27833,
  "d and t": 27613,
  "d and tr": 27488,
  "d at": 28432,
  "d at 2": 30789,
  "d at 20": 30781,
  "d at 3": 29613,
  "d at 3 f": 29592,
  "d at 8": 31862,
  "d at 8 f": 31842,
  "d at 9": 28391,
  "d at 9 f": 28338,
  "d b": 17731,
  "d by": 17687,
  "d by 1": 17576,
  "d by 14": 27426,
  "d by 17": 17511,
  "d by 9": 28990,
  "d by 9 f": 28978,
  "d f": 20739,
  "d fo": 22514,
  "d for": 22464,
  "d for c": 22324,
  "d for ch": 22241,
  "d fr": 20707,
  "d fro": 20657,
  "d from": 20598,
  "d from a": 20463,
  "d i": 28012,
  "d is": 27966,
  "d is n": 27806,
  "d is no": 27699,
  "d is not": 27583,
  "d k": 17341,
  "d ke": 17307,
  "d kee": 17266,
  "d keep": 17216,
  "d keep a": 17102,
  "d l": 26025,
  "d li": 25971,
  "d lis": 25903,
  "d list": 25817,
  "d list u": 25606,
  "d list w": 27503,
  "d m": 22115,
  "d ma": 22052,
  "d max": 21967,
  "d maxi": 21871,
  "d maxim": 21763,
  "d maximu": 21647,
  "d o": 19754,
  "d or": 19735,
  "d ord": 19710,
  "d orde": 19678,
  "d order": 19637,
  "d r": 23654,
  "d re": 23610,
  "d ret": 23547,
  "d retu": 23470,
  "d retur": 23384,
  "d return": 23295,
  "d t": 19476,
  "d th": 19436,
  "d the": 19379,
  "d the i": 25696,
  "d the in": 25586,
  "d the m": 19248,
  "d the ma": 19174,
  "d tr": 27924,
  "d tra": 27836,
  "d trav": 27731,
  "d trave": 27616,
  "d traver": 27491,
  "d w": 29259,
  "d wi": 29233,
  "d wit": 29198,
  "d with": 29154,
  "d with N": 29044,
  "d(d": 26664,
  "d(de": 26639,
  "d(def": 26598,
  "d(defa": 26542,
  "d(defau": 26471,
  "d(defaul": 26391,
  "d(f": 22125,
  "d(fi": 22070,
  "d(fir": 21989,
  "d(firs": 21900,
  "d(first": 21793,
  "d(first)": 21680,
  "d(g": 20416,
  "d(gr": 20337,
  "d(gro": 20231,
  "d(grou": 20113,
  "d(group": 19988,
  "d(group_": 19855,
  "d(h": 28015,
  "d(he": 27973,
  "d(hea": 27907,
  "d(head": 27814,
  "d(head.": 27708,
  "d(head.v": 27593,
  "d(l": 17078,
  "d(le": 16998,
  "d(lef": 16900,
  "d(left": 16784,
  "d(left.": 16657,
  "d(left.r": 16522,
  "d(r": 17089,
  "d(ri": 17017,
  "d(rig": 16918,
  "d(righ": 16807,
  "d(right": 16682,
  "d(right.": 16549,
  "d(ro": 21006,
  "d(row": 20964,
  "d(row_": 20914,
  "d(row_l": 20857,
  "d(row_li": 20794,
  "d(ru": 31488,
  "d(run": 31455,
  "d(runn": 31419,
  "d(runni": 31378,
  "d(runnin": 31332,
  "d(s": 16014,
  "d(se": 18390,
  "d(sel": 18292,
  "d(self": 18176,
  "d(self,": 18050,
  "d(st": 15961,
  "d(sta": 15891,
  "d(stac": 15812,
  "d(stack": 15720,
  "d(stack.": 15621,
  "d(t": 17364,
  "d(te": 17336,
  "d(tex": 17298,
  "d(text": 17252,
  "d(text)": 17199,
  "d(text))": 17142,
  "d(v": 16011,
  "d(va": 15955,
  "d(val": 15881,
  "d(valu": 15798,
  "d(value": 15704,
  "d(value)": 15602,
  "d(values": 19601,
  "d):": 29263,
  "d, \"": 16985,
  "d, \"\"": 16884,
  "d, \"\")": 16766,
  "d, f": 22075,
  "d, fi": 21995,
  "d, fir": 21909,
  "d, firs": 21803,
  "d, first": 21690,
  "d.D": 20403,
  "d.Da": 20322,
  "d.Dat": 20214,
  "d.Data": 20095,
  "d.DataF": 19968,
  "d.DataFr": 19834,
  "d.n": 28020,
  "d.ne": 27980,
  "d.nex": 27917,
  "d.next": 27826,
  "d.v": 28018,
  "d.va": 27977,
  "d.val": 27912,
  "d.valu": 27819,
  "d.value": 27713,
  "d.value)": 27598,
  "d].": 29269,
  "d].t": 29249,
  "d].to": 29218,
  "d].tol": 29178,
  "d].toli": 29130,
  "d].tolis": 29076,
  "d_l": 27416,
  "d_li": 27406,
  "d_lis": 27393,
  "d_list": 27376,
  "d_lists": 27357,
  "dar": 13917,
  "dary": 417,
  "dary 1": 13561,
  "dary 12": 29644,
  "dary 14": 26271,
  "dary 15": 13436,
  "dary 19": 28655,
  "dary 7": 24160,
  "dary 7 f": 24141,
  "dary e": 13625,
  "dary el": 13500,
  "dary els": 13378,
  "dary=": 13730,
  "dary=1": 13609,
  "dary=12": 29650,
  "dary=12)": 29642,
  "dary=14": 26277,
  "dary=14)": 26269,
  "dary=15": 13484,
  "dary=15)": 13362,
  "dary=19": 28661,
  "dary=19)": 28653,
  "dary=7": 24166,
  "dary=7)": 24158,
  "dary=7):": 24149,
  "das": 591,
  "das D": 26558,
  "das Da": 26492,
  "das Dat": 26416,
  "das Data": 26332,
  "das a": 20197,
  "das as": 20076,
  "das as p": 19816,
  "das f": 20181,
  "das fo": 20059,
  "das for": 19929,
  "das p": 20187,
  "das pa": 20066,
  "das par": 19936,
  "das para": 19803,
  "das v": 20947,
  "das va": 20895,
  "das val": 20837,
  "das valu": 20774,
  "dat": 15500,
  "date": 826,
  "date(": 15261,
  "date(r": 15119,
  "date(ri": 14968,
  "date(rig": 14817,
  "dd": 386,
  "dd(": 18463,
  "dd(s": 18389,
  "dd(se": 18291,
  "dd(sel": 18175,
  "dd(self": 18049,
  "dd(self,": 17914,
  "dd(v": 18411,
  "dd(va": 18317,
  "dd(val": 18206,
  "dd(valu": 18084,
  "dd(value": 17951,
  "ddl": 26043,
  "ddle": 26000,
  "ddle +": 25884,
  "ddle + 1": 25688,
  "ddle -": 25887,
  "ddle - 1": 25693,
  "ddle =": 25856,
  "ddle = (": 25651,
  "ddle]": 25948,
  "ddle] =": 25777,
  "ddle] ==": 25672,
  "de": 283,
  "de(": 28008,
  "de(v": 27959,
  "de(va": 27889,
  "de(val": 27795,
  "de(valu": 27687,
  "de(value": 27571,
  "de:": 27993,
  "de=": 28000,
  "de=N": 27945,
  "de=No": 27866,
  "de=Non": 27768,
  "de=None": 27659,
  "de=None)": 27539,
  "de_": 24079,
  "de_c": 24062,
  "de_co": 24038,
  "de_com": 24005,
  "de_comp": 23967,
  "de_compl": 23923,
  "deb": 14702,
  "debu": 14666,
  "debug": 14623,
  "debugg": 14572,
  "debuggi": 14519,
  "debuggin": 14461,
  "def": 300,
  "def _": 18258,
  "def __": 18141,
  "def __i": 18016,
  "def __in": 17883,
  "def a": 18287,
  "def ad": 18171,
  "def add": 18045,
  "def add(": 17910,
  "def s": 13717,
  "def so": 13594,
  "def sol": 13468,
  "def solv": 13345,
  "defa": 22890,
  "defau": 22841,
  "defaul": 22783,
  "default": 973,
  "default=": 22651,
  "default_": 26360,
  "deg": 27216,
  "degr": 27161,
  "degre": 27083,
  "degree": 1160,
  "degree_": 26911,
  "degree_l": 26798,
  "degrees": 26881,
  "degrees.": 26835,
  "degrees[": 26823,
  "deq": 24838,
  "dequ": 24794,
  "deque": 24729,
  "deque(": 24658,
  "deque(v": 24572,
  "deque(va": 24479,
  "der": 19756,
  "der f": 19711,
  "der fo": 19680,
  "der for": 19640,
  "der(": 23232,
  "der(i": 23186,
  "der(io": 23128,
  "der(io.": 23065,
  "der(io.S": 22998,
  "det": 19134,
  "dete": 19081,
  "deter": 19018,
  "determ": 18942,
  "determi": 18859,
  "determin": 18772,
  "dex": 492,
  "dex +": 14279,
  "dex + 2": 26692,
  "dex + 2]": 26676,
  "dex + 3": 19298,
  "dex + 3]": 19229,
  "dex + 4": 14124,
  "dex + 4]": 14041,
  "dex i": 14286,
  "dex in": 14214,
  "dex in r": 14049,
  "dex o": 25892,
  "dex of": 25802,
  "dex of a": 25590,
  "dex:": 14344,
  "dex:i": 14275,
  "dex:in": 14201,
  "dex:ind": 14120,
  "dex:inde": 14037,
  "dge": 27222,
  "dges": 27167,
  "dges f": 26997,
  "dges fo": 26892,
  "dges for": 26780,
  "dges)": 27103,
  "dges):": 27014,
  "dges[": 27118,
  "dges[:": 27032,
  "dges[:d": 26930,
  "dges[:de": 26815,
  "di": 522,
  "dia": 16396,
  "diat": 16358,
  "diate": 16301,
  "diate_": 16235,
  "diate_p": 16158,
  "diate_py": 16076,
  "dic": 15436,
  "dict": 682,
  "dict(": 15250,
  "dict(\"": 20928,
  "dict(\"r": 20874,
  "dict(\"re": 20813,
  "dict()": 20161,
  "dict(l": 15107,
  "dict(le": 14955,
  "dict(lef": 14805,
  "dict.": 29887,
  "dict.f": 29844,
  "dict.fr": 29796,
  "dict.fro": 29740,
  "dicti": 15176,
  "dictio": 15029,
  "diction": 14876,
  "dictiona": 14728,
  "dig": 17724,
  "digi": 17678,
  "digit": 806,
  "digit i": 17540,
  "digit in": 17471,
  "digit s": 17501,
  "digit su": 17432,
  "digit)": 17596,
  "digit) f": 17464,
  "dit": 624,
  "diti": 19098,
  "ditio": 19039,
  "dition": 18966,
  "ditions": 18886,
  "div": 14688,
  "divi": 14648,
  "divis": 14602,
  "divisi": 14549,
  "divisib": 14492,
  "divisibi": 14435,
  "divisibl": 18548,
  "divisible": 686,
  "diviso": 18984,
  "divisor": 18904,
  "dle": 26044,
  "dle +": 25956,
  "dle + 1": 25792,
  "dle -": 25958,
  "dle - 1": 25796,
  "dle =": 25936,
  "dle = (": 25758,
  "dle = (l": 25652,
  "dle]": 26010,
  "dle] =": 25873,
  "dle] ==": 25778,
  "dow": 19481,
  "dow o": 19390,
  "dow of": 19332,
  "dow of w": 19190,
  "ds c": 22042,
  "ds co": 21957,
  "ds con": 21861,
  "ds conf": 21753,
  "ds confi": 21637,
  "ds i": 26608,
  "ds in": 26555,
  "ds in a": 26410,
  "ds\"": 21054,
  "ds\")": 21025,
  "dth": 953,
  "dth 2": 26714,
  "dth 2 f": 26683,
  "dth 2 fo": 26668,
  "dth 3": 19395,
  "dth 3 f": 19267,
  "dth 3 fo": 19195,
  "dth 4": 30634,
  "dth 4 f": 30605,
  "dth 4 fo": 30591,
  "du": 890,
  "dup": 29937,
  "dupl": 29905,
  "dupli": 29865,
  "duplic": 29819,
  "duplica": 29765,
  "duplicat": 29708,
  "e": 72,
  "e \"": 13973,
  "e \"b": 13869,
  "e \"be": 13751,
  "e \"bel": 13632,
  "e \"belo": 13506,
  "e \"below": 13384,
  "e \"e": 13875,
  "e \"eq": 13757,
  "e \"equ": 13639,
  "e \"equa": 13514,
  "e \"equal": 13392,
  "e \"n": 18743,
  "e \"no": 18713,
  "e \"not": 18675,
  "e \"not d": 18584,
  "e %": 14715,
  "e % 1": 18518,
  "e % 11": 30142,
  "e % 111": 30133,
  "e % 1112": 30122,
  "e % 13": 24228,
  "e % 13 =": 30733,
  "e % 134": 24214,
  "e % 1346": 24199,
  "e % 136": 26105,
  "e % 1369": 26093,
  "e % 137": 29492,
  "e % 14": 30682,
  "e % 14 =": 30671,
  "e % 17": 18509,
  "e % 17 =": 18491,
  "e % 2": 25478,
  "e % 20": 30072,
  "e % 20 =": 30057,
  "e % 26": 25467,
  "e % 269": 25454,
  "e % 2696": 25441,
  "e % 3": 26191,
  "e % 30": 28898,
  "e % 302": 28891,
  "e % 31": 26180,
  "e % 317": 26167,
  "e % 3179": 26153,
  "e % 4": 28476,
  "e % 4 =": 28465,
  "e % 4 ==": 28455,
  "e % 41": 31795,
  "e % 417": 31787,
  "e % 4170": 31776,
  "e % 45": 31222,
  "e % 457": 31212,
  "e % 4574": 31201,
  "e % 5": 22599,
  "e % 50": 22591,
  "e % 50 =": 22573,
  "e % 56": 25369,
  "e % 566": 25358,
  "e % 5663": 25346,
  "e % 6": 14640,
  "e % 6 =": 14540,
  "e % 6 ==": 14482,
  "e % 67": 28170,
  "e % 674": 28160,
  "e % 6746": 28148,
  "e % 7": 18706,
  "e % 72": 18665,
  "e % 729": 18622,
  "e % 7298": 18575,
  "e % 79": 25218,
  "e % 797": 25207,
  "e % 7970": 25196,
  "e % 8": 21161,
  "e % 85": 30399,
  "e % 855": 30388,
  "e % 8554": 30377,
  "e % 86": 21150,
  "e % 864": 21137,
  "e % 8646": 21123,
  "e % 9": 17405,
  "e % 9 =": 17389,
  "e % 9 ==": 17377,
  "e % 97": 24391,
  "e % 970": 24379,
  "e % 9706": 24367,
  "e % d": 19071,
  "e % di": 19006,
  "e % div": 18928,
  "e % divi": 18845,
  "e *": 16407,
  "e * v": 16316,
  "e * va": 16251,
  "e * val": 16176,
  "e * valu": 16095,
  "e **": 19122,
  "e ** 0": 18999,
  "e ** 0.": 18921,
  "e ** 0.5": 18837,
  "e +": 18469,
  "e + 1": 25074,
  "e + 1)": 25041,
  "e + 1):": 24996,
  "e +=": 18398,
  "e += a": 18186,
  "e += am": 18061,
  "e += amo": 17926,
  "e -": 26056,
  "e - 1": 25959,
  "e 4": 14387,
  "e 4 f": 14251,
  "e 4 fo": 14175,
  "e 4 for": 14090,
  "e =": 17736,
  "e = (": 25937,
  "e = (l": 25858,
  "e = (le": 25760,
  "e = (lef": 25654,
  "e = 1": 17643,
  "e = 14": 27435,
  "e = 17": 17584,
  "e = 9": 28999,
  "e = d": 24732,
  "e = de": 24656,
  "e = deq": 24570,
  "e = dequ": 24477,
  "e = p": 20211,
  "e = pd": 20092,
  "e = pd.": 19965,
  "e = pd.D": 19831,
  "e = s": 18285,
  "e = st": 18169,
  "e = sta": 18043,
  "e = star": 17909,
  "e = v": 27871,
  "e = va": 27773,
  "e = val": 27664,
  "e = valu": 27544,
  "e V": 22095,
  "e Va": 22024,
  "e Val": 21939,
  "e Valu": 21840,
  "e Value": 21732,
  "e ValueE": 21616,
  "e a": 13885,
  "e a N": 21420,
  "e a Nu": 21346,
  "e a Num": 21267,
  "e a NumP": 21184,
  "e a P": 13646,
  "e a Py": 13521,
  "e a Pyt": 13398,
  "e a Pyth": 13275,
  "e a c": 18219,
  "e a cl": 18099,
  "e a cla": 17968,
  "e a clas": 17836,
  "e a f": 24023,
  "e a fu": 23985,
  "e a fun": 23944,
  "e a func": 23901,
  "e a l": 27840,
  "e a li": 27736,
  "e a lin": 27621,
  "e a link": 27497,
  "e a s": 17260,
  "e a st": 17209,
  "e a str": 17153,
  "e a stri": 17094,
  "e a t": 29189,
  "e a th": 29145,
  "e a thr": 29093,
  "e a thre": 29036,
  "e al": 15345,
  "e alg": 15216,
  "e algo": 15072,
  "e algor": 14920,
  "e algori": 14771,
  "e an": 13787,
  "e an i": 13543,
  "e an in": 13419,
  "e an int": 13297,
  "e ana": 16829,
  "e anag": 16705,
  "e anagr": 16575,
  "e anagra": 16436,
  "e ar": 23749,
  "e arr": 23740,
  "e arra": 23728,
  "e array": 23714,
  "e arrays": 23698,
  "e b": 13913,
  "e be": 13810,
  "e beg": 13692,
  "e begi": 13569,
  "e begin": 13444,
  "e beginn": 13323,
  "e bo": 13799,
  "e bou": 13679,
  "e boun": 13557,
  "e bound": 13432,
  "e bounda": 13310,
  "e by": 18728,
  "e by 1": 24219,
  "e by 11": 30125,
  "e by 111": 30115,
  "e by 13": 24204,
  "e by 134": 24189,
  "e by 136": 26084,
  "e by 137": 29479,
  "e by 2": 25457,
  "e by 26": 25445,
  "e by 269": 25431,
  "e by 3": 26170,
  "e by 30": 28886,
  "e by 302": 28877,
  "e by 31": 26158,
  "e by 317": 26143,
  "e by 4": 31215,
  "e by 41": 31779,
  "e by 417": 31769,
  "e by 45": 31205,
  "e by 457": 31193,
  "e by 5": 22585,
  "e by 50": 22576,
  "e by 56": 25350,
  "e by 566": 25337,
  "e by 6": 28162,
  "e by 67": 28152,
  "e by 674": 28140,
  "e by 7": 18648,
  "e by 72": 18604,
  "e by 729": 18554,
  "e by 79": 25199,
  "e by 797": 25187,
  "e by 8": 21140,
  "e by 85": 30380,
  "e by 855": 30368,
  "e by 86": 21128,
  "e by 864": 21113,
  "e by 9": 24382,
  "e by 97": 24371,
  "e by 970": 24358,
  "e by a": 26497,
  "e by a m": 26338,
  "e c": 19140,
  "e co": 19094,
  "e cod": 24035,
  "e code": 24002,
  "e code_": 23964,
  "e code_c": 23920,
  "e con": 19035,
  "e cond": 18962,
  "e condi": 18882,
  "e condit": 18798,
  "e conf": 25017,
  "e confi": 24966,
  "e config": 24907,
  "e d": 14687,
  "e de": 14665,
  "e deb": 14622,
  "e debu": 14571,
  "e debug": 14518,
  "e debugg": 14460,
  "e di": 14647,
  "e dic": 15175,
  "e dict": 15028,
  "e dicti": 14875,
  "e dictio": 14727,
  "e dig": 17625,
  "e digi": 17566,
  "e digit": 17500,
  "e div": 14601,
  "e divi": 14548,
  "e divis": 14491,
  "e divisi": 14434,
  "e du": 29904,
  "e dup": 29864,
  "e dupl": 29818,
  "e dupli": 29764,
  "e duplic": 29707,
  "e e": 25117,
  "e ex": 25098,
  "e exc": 25068,
  "e exce": 25031,
  "e excee": 24983,
  "e exceed": 24926,
  "e f": 15508,
  "e fi": 20712,
  "e fil": 20664,
  "e file": 20608,
  "e files": 20540,
  "e fir": 21915,
  "e firs": 21811,
  "e first": 21699,
  "e fo": 15401,
  "e for": 15275,
  "e for k": 14986,
  "e for ke": 14833,
  "e for t": 18878,
  "e for th": 18793,
  "e for v": 16178,
  "e for va": 16097,
  "e fu": 17820,
  "e fun": 17809,
  "e func": 17797,
  "e funct": 17781,
  "e functi": 17762,
  "e g": 27223,
  "e gr": 27169,
  "e gra": 27094,
  "e grap": 27001,
  "e graph": 26897,
  "e graphs": 26785,
  "e h": 28011,
  "e he": 27964,
  "e hea": 27896,
  "e head": 27803,
  "e head i": 27580,
  "e i": 15512,
  "e in": 15408,
  "e in r": 15144,
  "e in re": 14996,
  "e in res": 14842,
  "e in rev": 27558,
  "e in v": 15778,
  "e in va": 15682,
  "e in val": 15578,
  "e ind": 25891,
  "e inde": 25800,
  "e index": 25699,
  "e int": 16294,
  "e inte": 16227,
  "e inter": 16150,
  "e interm": 16068,
  "e l": 26040,
  "e le": 25996,
  "e lef": 25933,
  "e left": 25854,
  "e li": 27400,
  "e lin": 27387,
  "e link": 27370,
  "e linke": 27351,
  "e linked": 27330,
  "e m": 14389,
  "e ma": 16952,
  "e mar": 16848,
  "e mark": 16725,
  "e marke": 16596,
  "e marker": 16456,
  "e max": 19380,
  "e maxi": 19321,
  "e maxim": 19251,
  "e maximu": 19177,
  "e mi": 14325,
  "e mis": 14255,
  "e misc": 14178,
  "e misc p": 14010,
  "e miss": 20887,
  "e missi": 20828,
  "e missin": 20764,
  "e n": 21551,
  "e nu": 21498,
  "e num": 21437,
  "e nump": 21366,
  "e numpy": 21287,
  "e o": 18433,
  "e oo": 18351,
  "e oop": 18244,
  "e oop p": 18000,
  "e oop pa": 17867,
  "e p": 20387,
  "e pa": 20297,
  "e pan": 20185,
  "e pand": 20063,
  "e panda": 19933,
  "e pandas": 19799,
  "e q": 24827,
  "e qu": 24778,
  "e que": 24710,
  "e queu": 24629,
  "e queue": 24541,
  "e queues": 24448,
  "e r": 15445,
  "e re": 15322,
  "e res": 23550,
  "e resu": 23473,
  "e resul": 23388,
  "e result": 23300,
  "e ret": 15188,
  "e reta": 15043,
  "e retai": 14891,
  "e retain": 14742,
  "e s": 15985,
  "e st": 15925,
  "e sta": 15846,
  "e stac": 15758,
  "e stack": 15664,
  "e stack:": 15609,
  "e stacks": 15561,
  "e str": 16854,
  "e stri": 16732,
  "e strin": 16604,
  "e string": 16466,
  "e u": 15974,
  "e up": 15908,
  "e up t": 15740,
  "e up to": 15640,
  "e v": 18428,
  "e va": 18339,
  "e val": 18233,
  "e valu": 18113,
  "e value": 17984,
  "e values": 17850,
  "e w": 19137,
  "e wh": 19086,
  "e whe": 19025,
  "e whet": 18949,
  "e wheth": 18865,
  "e whethe": 18779,
  "e\" i": 13861,
  "e\" if": 13743,
  "e\" if v": 13495,
  "e\" if va": 13373,
  "e\"]": 20434,
  "e\"].": 20361,
  "e\"].s": 20261,
  "e\"].su": 20148,
  "e\"].sum": 20023,
  "e\"].sum(": 19892,
  "e(\"": 17079,
  "e(\" \"": 16902,
  "e(\" \",": 16788,
  "e(\" \", \"": 16527,
  "e(0": 14418,
  "e(0,": 14362,
  "e(0, l": 14221,
  "e(0, le": 14140,
  "e(0, len": 14057,
  "e(2": 19155,
  "e(2,": 19117,
  "e(2, i": 18991,
  "e(2, in": 18912,
  "e(2, int": 18827,
  "e(2, v": 25037,
  "e(2, va": 24991,
  "e(2, val": 24936,
  "e(c": 22089,
  "e(co": 22017,
  "e(cou": 21932,
  "e(coun": 21832,
  "e(count": 21723,
  "e(count)": 21609,
  "e(e": 27227,
  "e(ed": 27174,
  "e(edg": 27101,
  "e(edge": 27011,
  "e(edges": 26908,
  "e(edges)": 26796,
  "e(i": 17066,
  "e(ig": 16982,
  "e(ign": 16880,
  "e(igno": 16761,
  "e(ignor": 16632,
  "e(ignore": 16496,
  "e(l": 15472,
  "e(le": 15360,
  "e(lef": 15231,
  "e(left": 15088,
  "e(left,": 14938,
  "e(len": 19427,
  "e(len(": 19371,
  "e(len(q": 24594,
  "e(len(qu": 24503,
  "e(len(v": 19308,
  "e(len(va": 19238,
  "e(r": 15502,
  "e(ri": 15392,
  "e(rig": 15264,
  "e(righ": 15122,
  "e(right": 14971,
  "e(right)": 14820,
  "e(ro": 20311,
  "e(row": 20202,
  "e(rows": 20081,
  "e(rows)": 19954,
  "e(rows).": 19844,
  "e(rows):": 19822,
  "e(rows,": 26434,
  "e(s": 23669,
  "e(sh": 23644,
  "e(sha": 23594,
  "e(shap": 23526,
  "e(shape": 23446,
  "e(shape)": 23360,
  "e(t": 17350,
  "e(te": 17320,
  "e(tex": 17279,
  "e(text": 17231,
  "e(text)": 17177,
  "e(text):": 17120,
  "e(v": 13949,
  "e(va": 13842,
  "e(val": 13724,
  "e(valu": 13601,
  "e(value": 13475,
  "e(value)": 14473,
  "e(value,": 13352,
  "e(values": 14018,
  "e))": 17750,
  "e)))": 17721,
  "e))) *": 17617,
  "e))) * s": 17487,
  "e))]": 24815,
  "e).": 23671,
  "e).s": 23647,
  "e).sh": 23598,
  "e).sha": 23531,
  "e).shap": 23452,
  "e).shape": 23366,
  "e):": 14713,
  "e)[": 19766,
  "e)[:": 19752,
  "e)[:l": 19730,
  "e)[:li": 19702,
  "e)[:lim": 19666,
  "e)[:limi": 19621,
  "e, b": 13846,
  "e, bo": 13728,
  "e, bou": 13606,
  "e, boun": 13480,
  "e, bound": 13357,
  "e, d": 22888,
  "e, de": 22839,
  "e, def": 22781,
  "e, defa": 22718,
  "e, defau": 22649,
  "e, h": 27960,
  "e, he": 27891,
  "e, hea": 27798,
  "e, head": 27691,
  "e, head)": 27576,
  "e, n": 27938,
  "e, ne": 27857,
  "e, nex": 27759,
  "e, next": 27650,
  "e, next_": 27530,
  "e.f": 21038,
  "e.fi": 21008,
  "e.fil": 20968,
  "e.fill": 20919,
  "e.filln": 20863,
  "e.fillna": 20801,
  "e.g": 20419,
  "e.gr": 20344,
  "e.gro": 20240,
  "e.grou": 20124,
  "e.group": 20000,
  "e.groupb": 19868,
  "e.p": 24844,
  "e.po": 24804,
  "e.pop": 24744,
  "e.popl": 24671,
  "e.pople": 24586,
  "e.poplef": 24494,
  "e=F": 19763,
  "e=Fa": 19748,
  "e=Fal": 19725,
  "e=Fals": 19696,
  "e=False": 19660,
  "e=False)": 19615,
  "e=N": 28001,
  "e=No": 27946,
  "e=Non": 27867,
  "e=None": 27769,
  "e=None)": 27660,
  "e=None):": 27540,
  "eEr": 22098,
  "eErr": 22028,
  "eErro": 21943,
  "eError": 21845,
  "eError(": 21737,
  "eError(\"": 21621,
  "eError)": 22744,
  "eError):": 22680,
  "eError,": 22738,
  "e[\"": 26660,
  "e[\"v": 26633,
  "e[\"va": 26589,
  "e[\"val": 26531,
  "e[\"valu": 26458,
  "e[\"value": 26377,
  "e[f": 26658,
  "e[fr": 26630,
  "e[fra": 26585,
  "e[fram": 26526,
  "e[frame": 26452,
  "e[frame[": 26371,
  "e] =": 26011,
  "e] ==": 25950,
  "e] == t": 25779,
  "e] == ta": 25674,
  "e_c": 24080,
  "e_co": 24063,
  "e_com": 24039,
  "e_comp": 24006,
  "e_compl": 23968,
  "e_comple": 23924,
  "e_l": 27230,
  "e_li": 27179,
  "e_lim": 27108,
  "e_limi": 27019,
  "e_limit": 26916,
  "e_limit]": 26821,
  "e_p": 16399,
  "e_py": 16361,
  "e_pyt": 16305,
  "e_pyth": 16239,
  "e_pytho": 16162,
  "e_python": 16080,
  "ead": 20414,
  "ead =": 27880,
  "ead = N": 27674,
  "ead = No": 27555,
  "ead = h": 27715,
  "ead = he": 27600,
  "ead f": 20655,
  "ead fr": 20596,
  "ead fro": 20531,
  "ead from": 20462,
  "ead i": 27897,
  "ead is": 27805,
  "ead is n": 27581,
  "ead(": 20335,
  "ead(d": 26596,
  "ead(de": 26540,
  "ead(def": 26469,
  "ead(defa": 26389,
  "ead(g": 20229,
  "ead(gr": 20111,
  "ead(gro": 19986,
  "ead(grou": 19853,
  "ead(r": 20962,
  "ead(ro": 20912,
  "ead(row": 20855,
  "ead(row_": 20792,
  "ead)": 27962,
  "ead.": 27975,
  "ead.n": 27915,
  "ead.ne": 27824,
  "ead.nex": 27720,
  "ead.next": 27605,
  "ead.v": 27910,
  "ead.va": 27817,
  "ead.val": 27711,
  "ead.valu": 27596,
  "eade": 23231,
  "eader": 23184,
  "eader(": 23126,
  "eader(i": 23063,
  "eader(io": 22996,
  "ean": 1121,
  "ean w": 21426,
  "ean wi": 21353,
  "ean wit": 21274,
  "ean with": 21190,
  "ean(": 21522,
  "ean(n": 21464,
  "ean(np": 21396,
  "ean(np.": 21322,
  "ean(np.a": 21240,
  "ear": 26031,
  "earc": 25981,
  "earch": 25915,
  "earch f": 25730,
  "earch fo": 25622,
  "eas": 29944,
  "east": 29918,
  "east 1": 29834,
  "east 11": 31646,
  "east 12": 29784,
  "east 14": 30758,
  "east 16": 30278,
  "east 2": 30353,
  "east 2 f": 30693,
  "east 20": 30346,
  "east 4": 30870,
  "east 4 f": 30858,
  "east 7": 30175,
  "east 7 f": 30161,
  "ebu": 14703,
  "ebug": 14667,
  "ebugg": 14624,
  "ebuggi": 14573,
  "ebuggin": 14520,
  "ebugging": 14462,
  "eck": 17020,
  "eck w": 16811,
  "eck wh": 16688,
  "eck whe": 16557,
  "eck whet": 16418,
  "eco": 21051,
  "econ": 22059,
  "econd": 21976,
  "econd =": 21773,
  "econd,": 21906,
  "econd, f": 21686,
  "ecor": 21022,
  "ecord": 20984,
  "ecords": 20935,
  "ecords i": 26322,
  "ecords\"": 20880,
  "ecords\")": 20820,
  "ect": 24837,
  "ecti": 24790,
  "ectio": 24722,
  "ection": 24644,
  "ections": 24555,
  "ed": 361,
  "ed =": 16965,
  "ed = '": 22372,
  "ed = 'a": 22295,
  "ed = 'ae": 22209,
  "ed = s": 16741,
  "ed = st": 16614,
  "ed = str": 16477,
  "ed a": 28431,
  "ed at": 28412,
  "ed at 2": 30780,
  "ed at 20": 30771,
  "ed at 3": 29602,
  "ed at 8": 31851,
  "ed at 9": 28365,
  "ed b": 17686,
  "ed by": 17635,
  "ed by 1": 17510,
  "ed by 14": 27420,
  "ed by 17": 17442,
  "ed by 9": 28984,
  "ed f": 22513,
  "ed fo": 22463,
  "ed for": 22398,
  "ed for c": 22240,
  "ed l": 25970,
  "ed li": 25902,
  "ed lis": 25816,
  "ed list": 25715,
  "ed m": 22051,
  "ed ma": 21966,
  "ed max": 21870,
  "ed maxi": 21762,
  "ed maxim": 21646,
  "ed o": 19734,
  "ed or": 19709,
  "ed ord": 19677,
  "ed orde": 19636,
  "ed order": 19589,
  "ed(": 17077,
  "ed(l": 16997,
  "ed(le": 16899,
  "ed(lef": 16783,
  "ed(left": 16656,
  "ed(left.": 16521,
  "ed(r": 17016,
  "ed(ri": 16917,
  "ed(rig": 16806,
  "ed(righ": 16681,
  "ed(right": 16548,
  "ed(t": 17335,
  "ed(te": 17297,
  "ed(tex": 17251,
  "ed(text": 17198,
  "ed(text)": 17141,
  "ed(v": 19742,
  "ed(va": 19717,
  "ed(val": 19686,
  "ed(valu": 19648,
  "ed(value": 19600,
  "ed,": 17068,
  "ed, \"": 16883,
  "ed, \"\"": 16765,
  "ed, \"\")": 16637,
  "ed_": 27415,
  "ed_l": 27405,
  "ed_li": 27392,
  "ed_lis": 27375,
  "ed_list": 27356,
  "ed_lists": 27335,
  "edg": 27221,
  "edge": 27166,
  "edges": 915,
  "edges f": 26891,
  "edges fo": 26779,
  "edges)": 27013,
  "edges):": 26910,
  "edges[": 27031,
  "edges[:": 26929,
  "edges[:d": 26814,
  "edi": 16395,
  "edia": 16357,
  "ediat": 16300,
  "ediate": 16234,
  "ediate_": 16157,
  "ediate_p": 16075,
  "eds": 22108,
  "eds c": 21956,
  "eds co": 21860,
  "eds con": 21752,
  "eds conf": 21636,
  "ee_": 27229,
  "ee_l": 27178,
  "ee_li": 27107,
  "ee_lim": 27018,
  "ee_limi": 26915,
  "ee_limit": 26802,
  "eed": 750,
  "eeds": 22041,
  "eeds c": 21859,
  "eeds co": 21751,
  "eeds con": 21635,
  "eep": 17343,
  "eep a": 17267,
  "eep at": 17218,
  "eep at m": 17103,
  "ees": 27218,
  "ees =": 27109,
  "ees = {": 26918,
  "ees = {}": 26805,
  "ees f": 27086,
  "ees fo": 26991,
  "ees for": 26884,
  "ees.": 27197,
  "ees.g": 27135,
  "ees.ge": 27051,
  "ees.get": 26952,
  "ees.get(": 26839,
  "ees[": 27191,
  "ees[l": 27126,
  "ees[le": 27041,
  "ees[lef": 26941,
  "ees[left": 26827,
  "ees[r": 27143,
  "ees[ri": 27062,
  "ees[rig": 26964,
  "ees[righ": 26852,
  "ef _": 18363,
  "ef __": 18259,
  "ef __i": 18142,
  "ef __in": 18017,
  "ef __ini": 17884,
  "ef a": 18386,
  "ef ad": 18288,
  "ef add": 18172,
  "ef add(": 18046,
  "ef add(s": 17911,
  "ef s": 13836,
  "ef so": 13718,
  "ef sol": 13595,
  "ef solv": 13469,
  "ef solve": 13346,
  "efa": 22930,
  "efau": 22891,
  "efaul": 22842,
  "efault": 22784,
  "efault=": 22720,
  "efault=1": 22652,
  "efault=2": 28809,
  "efault=4": 31035,
  "efault=7": 23789,
  "efault_": 26442,
  "efault_l": 26361,
  "efi": 31493,
  "efix": 31464,
  "efix s": 31390,
  "efix su": 31346,
  "efix sum": 31295,
  "eft": 15475,
  "eft +": 25939,
  "eft + r": 25763,
  "eft + ri": 25656,
  "eft =": 16867,
  "eft = l": 16618,
  "eft = le": 16481,
  "eft = m": 25787,
  "eft = mi": 25683,
  "eft(": 24808,
  "eft()": 24750,
  "eft() f": 24590,
  "eft() fo": 24499,
  "eft)": 15383,
  "eft,": 15362,
  "eft, 0": 27057,
  "eft, 0)": 26960,
  "eft, r": 15090,
  "eft, ri": 14940,
  "eft, rig": 14791,
  "eft.": 16972,
  "eft.r": 16871,
  "eft.re": 16751,
  "eft.rep": 16623,
  "eft.repl": 16486,
  "eft]": 27195,
  "eft] =": 27045,
  "eft] = d": 26830,
  "eg": 403,
  "ega": 20378,
  "egat": 20281,
  "egate": 20169,
  "egate v": 19911,
  "egate va": 19775,
  "ege": 13907,
  "eger": 520,
  "eger i": 18952,
  "eger is": 18870,
  "eger s": 22757,
  "eger sa": 22695,
  "eger saf": 22623,
  "eger w": 13548,
  "eger wi": 13424,
  "eger wit": 13302,
  "egi": 13922,
  "egin": 13812,
  "eginn": 13694,
  "eginne": 13571,
  "eginner": 13446,
  "egr": 27217,
  "egre": 27162,
  "egree": 27084,
  "egree_": 27015,
  "egree_l": 26912,
  "egree_li": 26799,
  "egrees": 26989,
  "egrees =": 26803,
  "egrees f": 26769,
  "egrees.": 26949,
  "egrees.g": 26836,
  "egrees[": 26938,
  "egrees[l": 26824,
  "egrees[r": 26849,
  "ei": 729,
  "eigh": 803,
  "eighbor": 805,
  "eio": 22529,
  "eiou": 731,
  "eiou w": 22357,
  "eiou wi": 22280,
  "eiou wit": 22196,
  "eiou'": 22445,
  "eiouy": 910,
  "eiouy w": 23846,
  "eiouy wi": 23831,
  "eiouy'": 23868,
  "el": 355,
  "elf": 18453,
  "elf,": 18373,
  "elf, a": 18177,
  "elf, am": 18052,
  "elf, amo": 17917,
  "elf, s": 18153,
  "elf, st": 18028,
  "elf, sta": 17895,
  "elf, v": 27754,
  "elf, va": 27644,
  "elf, val": 27522,
  "elf.": 18381,
  "elf.n": 27872,
  "elf.ne": 27775,
  "elf.nex": 27666,
  "elf.next": 27546,
  "elf.v": 18280,
  "elf.va": 18163,
  "elf.val": 18037,
  "elf.valu": 17903,
  "elo": 13975,
  "elow": 13872,
  "elow\"": 13753,
  "elow\" i": 13508,
  "elow\" if": 13386,
  "els": 929,
  "els u": 22416,
  "els us": 22345,
  "els usi": 22266,
  "els usin": 22182,
  "else": 13867,
  "else \"": 13629,
  "else \"b": 13503,
  "else \"be": 13381,
  "else \"e": 13511,
  "else \"eq": 13389,
  "else \"n": 18627,
  "else \"no": 18582,
  "else:": 25957,
  "ely": 790,
  "ely w": 22824,
  "ely wi": 22763,
  "ely wit": 22701,
  "ely with": 22630,
  "emo": 29935,
  "emov": 29902,
  "emove": 29861,
  "emove d": 29760,
  "emove du": 29703,
  "ems": 15516,
  "ems(": 15415,
  "ems()": 15291,
  "ems() i": 15006,
  "ems() if": 14853,
  "en": 911,
  "en(": 14421,
  "en(q": 24811,
  "en(qu": 24754,
  "en(que": 24682,
  "en(queu": 24597,
  "en(queue": 24506,
  "en(s": 15421,
  "en(st": 15297,
  "en(str": 15160,
  "en(str(": 15013,
  "en(str(k": 14860,
  "en(t": 20720,
  "en(te": 20677,
  "en(tex": 20623,
  "en(text": 20556,
  "en(text.": 20490,
  "en(v": 14366,
  "en(va": 14298,
  "en(val": 14226,
  "en(valu": 14145,
  "en(value": 14062,
  "end": 16009,
  "end(": 15953,
  "end(f": 21987,
  "end(fi": 21898,
  "end(fir": 21791,
  "end(firs": 21678,
  "end(h": 27905,
  "end(he": 27812,
  "end(hea": 27706,
  "end(head": 27591,
  "end(r": 31453,
  "end(ru": 31417,
  "end(run": 31376,
  "end(runn": 31330,
  "end(s": 15889,
  "end(st": 15810,
  "end(sta": 15718,
  "end(stac": 15619,
  "end(v": 15879,
  "end(va": 15796,
  "end(val": 15702,
  "end(valu": 15600,
  "ep": 556,
  "ep a": 17309,
  "ep at": 17268,
  "ep at m": 17162,
  "ep at mo": 17104,
  "epl": 17062,
  "epla": 16977,
  "eplac": 16876,
  "eplace": 16756,
  "eplace m": 20759,
  "eplace(": 16627,
  "eplace(\"": 16524,
  "eplace(i": 16491,
  "ept": 792,
  "ept (": 22853,
  "ept (T": 22796,
  "ept (Ty": 22732,
  "ept (Typ": 22666,
  "equ": 688,
  "equa": 13877,
  "equal": 692,
  "equal\"": 13641,
  "eque": 24795,
  "eque(": 24734,
  "eque(v": 24659,
  "eque(va": 24573,
  "eque(val": 24480,
  "er": 270,
  "er 1": 16956,
  "er 12": 16851,
  "er 12 f": 16599,
  "er 12 fo": 16460,
  "er 13": 31755,
  "er 13 f": 31744,
  "er 13 fo": 31738,
  "er 15": 29532,
  "er 15 f": 29520,
  "er 15 fo": 29514,
  "er 16": 30932,
  "er 16 f": 30920,
  "er 16 fo": 30914,
  "er 18": 28964,
  "er 18 f": 28952,
  "er 18 fo": 28946,
  "er a": 18717,
  "er a n": 18635,
  "er a nu": 18591,
  "er a num": 18538,
  "er an": 19026,
  "er an a": 29082,
  "er an ar": 29026,
  "er an i": 18867,
  "er an in": 18782,
  "er f": 19738,
  "er fo": 19712,
  "er for": 19681,
  "er for t": 19592,
  "er i": 16944,
  "er ig": 16839,
  "er ign": 16715,
  "er igno": 16586,
  "er ignor": 16446,
  "er in": 22468,
  "er in r": 24989,
  "er in ra": 24933,
  "er in t": 22330,
  "er in te": 22248,
  "er is": 18686,
  "er is d": 18596,
  "er is di": 18544,
  "er is p": 18871,
  "er is pr": 18787,
  "er p": 13816,
  "er pa": 13697,
  "er par": 13575,
  "er para": 13450,
  "er param": 13329,
  "er r": 26606,
  "er re": 26552,
  "er rec": 26483,
  "er reco": 26406,
  "er recor": 26320,
  "er s": 13822,
  "er sa": 22820,
  "er saf": 22759,
  "er safe": 22697,
  "er safel": 22625,
  "er se": 13704,
  "er set": 13583,
  "er set 1": 14015,
  "er set 2": 17371,
  "er set 3": 13336,
  "er set 4": 14781,
  "er set 5": 17112,
  "er set 6": 18485,
  "er set 7": 14469,
  "er set 8": 21062,
  "er set 9": 17871,
  "er t": 16927,
  "er tw": 16818,
  "er two": 16695,
  "er two s": 16424,
  "er w": 13793,
  "er wi": 13672,
  "er wit": 13550,
  "er with": 13426,
  "er(": 17086,
  "er()": 17010,
  "er() i": 22391,
  "er() in": 22316,
  "er())": 16911,
  "er()) =": 16672,
  "er()) ==": 16538,
  "er(i": 23233,
  "er(io": 23187,
  "er(io.": 23129,
  "er(io.S": 23066,
  "er(io.St": 22999,
  "er.": 22546,
  "er.l": 22508,
  "er.lo": 22456,
  "er.low": 22389,
  "er.lowe": 22313,
  "er.lower": 22228,
  "erg": 15434,
  "erge": 829,
  "erge d": 15025,
  "erge di": 14872,
  "erge dic": 14724,
  "erm": 16393,
  "erme": 16354,
  "ermed": 858,
  "ermedi": 16231,
  "ermedia": 16154,
  "ermediat": 16072,
  "ermi": 19082,
  "ermin": 19021,
  "ermine": 18945,
  "ermine w": 18774,
  "ero": 21030,
  "ero f": 20953,
  "ero fo": 20903,
  "ero for": 20844,
  "ers": 15460,
  "ers f": 15211,
  "ers fo": 15068,
  "ers for": 14915,
  "erse": 15906,
  "erse a": 17207,
  "erse a l": 27494,
  "erse a s": 17091,
  "erse u": 15738,
  "erse up": 15638,
  "erse=": 19722,
  "erse=F": 19693,
  "erse=Fa": 19657,
  "erse=Fal": 19612,
  "ersed": 17294,
  "ersed(": 17248,
  "ersed(t": 17195,
  "ersed(te": 17138,
  "ersed(v": 27679,
  "ersed(va": 27562,
  "es": 344,
  "es =": 19461,
  "es = [": 21874,
  "es = []": 21767,
  "es = v": 19350,
  "es = va": 19283,
  "es = val": 19211,
  "es = {": 27021,
  "es = {}": 26919,
  "es a": 29913,
  "es at": 29876,
  "es at l": 29779,
  "es at le": 29724,
  "es b": 20282,
  "es by": 20171,
  "es by g": 19915,
  "es by gr": 19780,
  "es f": 23210,
  "es fo": 23159,
  "es for": 23101,
  "es for t": 22968,
  "es for u": 26772,
  "es i": 19732,
  "es if": 29899,
  "es if v": 29809,
  "es if va": 29754,
  "es in": 19706,
  "es in f": 24521,
  "es in fi": 24428,
  "es in s": 19630,
  "es in so": 19582,
  "es in t": 20524,
  "es in te": 20455,
  "es p": 20714,
  "es pa": 20667,
  "es par": 20611,
  "es para": 20544,
  "es param": 20477,
  "es s": 18340,
  "es st": 18235,
  "es sta": 18116,
  "es star": 17988,
  "es start": 17855,
  "es u": 15915,
  "es up": 24031,
  "es up t": 23953,
  "es up to": 23910,
  "es us": 15835,
  "es usi": 15747,
  "es usin": 15650,
  "es using": 15548,
  "es w": 15317,
  "es wh": 15183,
  "es whi": 15038,
  "es whil": 14885,
  "es while": 14737,
  "es wi": 16273,
  "es wit": 16202,
  "es with": 16123,
  "es(": 20753,
  "es()": 20730,
  "es())": 20690,
  "es()),": 20639,
  "es()), l": 20505,
  "es)": 14397,
  "es) -": 19429,
  "es) - 1": 25750,
  "es) - 1,": 25644,
  "es) - 2": 26697,
  "es) - 3": 19311,
  "es) - 4": 30617,
  "es))": 21534,
  "es)))": 21478,
  "es))) +": 21337,
  "es))]": 23583,
  "es),": 14368,
  "es), 4": 14229,
  "es), 4)": 14149,
  "es), 4)]": 14067,
  "es):": 14334,
  "es)[": 23626,
  "es)[:": 23571,
  "es)[:m": 23499,
  "es)[:ma": 23417,
  "es)[:max": 23329,
  "es,": 19761,
  "es, r": 19719,
  "es, re": 19689,
  "es, rev": 19652,
  "es, reve": 19606,
  "es, s": 23562,
  "es, sh": 23488,
  "es, sha": 23405,
  "es, shap": 23317,
  "es, t": 25921,
  "es, ta": 25838,
  "es, tar": 25739,
  "es, targ": 25631,
  "es, th": 29159,
  "es, thr": 29109,
  "es, thre": 29053,
  "es.": 22123,
  "es.a": 22067,
  "es.ap": 21985,
  "es.app": 21895,
  "es.appe": 21787,
  "es.appen": 21673,
  "es.g": 27198,
  "es.ge": 27136,
  "es.get": 27052,
  "es.get(": 26953,
  "es.get(l": 26840,
  "es.get(r": 26858,
  "es:": 18474,
  "es[": 14401,
  "es[:": 15941,
  "es[:1": 25566,
  "es[:10": 31944,
  "es[:10]": 31940,
  "es[:10]:": 31934,
  "es[:11": 29426,
  "es[:11]": 29419,
  "es[:11]:": 29409,
  "es[:12": 25558,
  "es[:12]": 25550,
  "es[:12]:": 25540,
  "es[:13": 28268,
  "es[:13]": 28264,
  "es[:13]:": 28259,
  "es[:15": 28237,
  "es[:15]": 28233,
  "es[:15]:": 28228,
  "es[:18": 29980,
  "es[:18]": 29973,
  "es[:18]:": 29963,
  "es[:2": 30256,
  "es[:20": 30251,
  "es[:20]": 30246,
  "es[:20]:": 30240,
  "es[:6": 27467,
  "es[:6]": 27462,
  "es[:6]:": 27457,
  "es[:7": 24046,
  "es[:7]": 24016,
  "es[:7]:": 23979,
  "es[:c": 15865,
  "es[:ca": 15782,
  "es[:cap": 15687,
  "es[:capa": 15585,
  "es[:d": 27120,
  "es[:de": 27034,
  "es[:deg": 26932,
  "es[:degr": 26817,
  "es[:l": 16318,
  "es[:li": 16254,
  "es[:lim": 16181,
  "es[:limi": 16101,
  "es[i": 14339,
  "es[in": 14271,
  "es[ind": 14196,
  "es[inde": 14115,
  "es[index": 14032,
  "es[l": 27192,
  "es[le": 27127,
  "es[lef": 27042,
  "es[left": 26942,
  "es[left]": 26828,
  "es[m": 26007,
  "es[mi": 25945,
  "es[mid": 25869,
  "es[midd": 25773,
  "es[middl": 25668,
  "es[r": 27206,
  "es[ri": 27144,
  "es[rig": 27063,
  "es[righ": 26965,
  "es[right": 26853,
  "esh": 23650,
  "esha": 23602,
  "eshap": 23536,
  "eshape": 23457,
  "eshape v": 23280,
  "eshape(": 23441,
  "eshape(s": 23355,
  "esho": 29230,
  "eshol": 29194,
  "eshold": 29150,
  "eshold w": 29040,
  "eshold)": 29112,
  "eshold):": 29057,
  "eshold]": 29125,
  "eshold].": 29071,
  "ess": 16391,
  "ess u": 24693,
  "ess up": 24608,
  "ess up t": 24422,
  "essi": 16348,
  "essio": 16290,
  "ession": 16222,
  "ession f": 16059,
  "esu": 15489,
  "esul": 15376,
  "esult": 15246,
  "esult *": 24997,
  "esult *=": 24943,
  "esult -": 28370,
  "esult =": 14950,
  "esult.": 15112,
  "esult.a": 15711,
  "esult.ap": 15611,
  "esult.i": 14999,
  "esult.it": 14846,
  "esult.u": 14960,
  "esult.up": 14809,
  "esulti": 23474,
  "esultin": 23390,
  "esulting": 23302,
  "et": 266,
  "et 1": 14329,
  "et 10": 26239,
  "et 100": 28235,
  "et 1003": 28230,
  "et 1003.": 28225,
  "et 101": 28129,
  "et 1010": 30207,
  "et 10101": 30205,
  "et 1013": 28127,
  "et 1013.": 28125,
  "et 103": 31250,
  "et 1033": 31248,
  "et 10331": 31245,
  "et 105": 31023,
  "et 105.": 31022,
  "et 106": 29471,
  "et 1069": 29469,
  "et 1069.": 29467,
  "et 108": 26236,
  "et 1082": 28987,
  "et 10820": 28981,
  "et 1089": 26230,
  "et 1089.": 26225,
  "et 109": 30839,
  "et 1095": 30837,
  "et 10951": 30834,
  "et 11": 16311,
  "et 11 f": 30505,
  "et 11 fo": 30499,
  "et 110": 16246,
  "et 1105": 29275,
  "et 11052": 29273,
  "et 1106": 16170,
  "et 1106.": 16089,
  "et 111": 30140,
  "et 1112": 30130,
  "et 1112.": 30119,
  "et 112": 31623,
  "et 1129": 31621,
  "et 1129.": 31619,
  "et 114": 28727,
  "et 1140": 28723,
  "et 11402": 30323,
  "et 11407": 28717,
  "et 1147": 30713,
  "et 1147.": 30712,
  "et 115": 26283,
  "et 1154": 26275,
  "et 11547": 26266,
  "et 12": 21442,
  "et 121": 28667,
  "et 1210": 28659,
  "et 12103": 28650,
  "et 122": 21372,
  "et 1229": 21294,
  "et 1229.": 21213,
  "et 123": 24309,
  "et 123.": 24302,
  "et 125": 29690,
  "et 125.": 29688,
  "et 127": 25022,
  "et 1270": 24972,
  "et 1270.": 24915,
  "et 129": 26072,
  "et 1297": 26067,
  "et 1297.": 26062,
  "et 13": 17639,
  "et 13 f": 21282,
  "et 13 fo": 21199,
  "et 132": 17580,
  "et 1328": 17516,
  "et 1328.": 17449,
  "et 133": 25835,
  "et 1338": 25735,
  "et 1338.": 25627,
  "et 134": 24225,
  "et 1346": 24211,
  "et 13462": 24195,
  "et 135": 27308,
  "et 1354": 27302,
  "et 1354.": 27296,
  "et 136": 26115,
  "et 1361": 27362,
  "et 1361.": 27342,
  "et 1369": 26103,
  "et 13694": 26090,
  "et 137": 29498,
  "et 137.": 29491,
  "et 139": 28304,
  "et 1398": 28299,
  "et 1398.": 28293,
  "et 14": 25418,
  "et 143": 25414,
  "et 143.": 31517,
  "et 1434": 25408,
  "et 1434.": 25402,
  "et 146": 30197,
  "et 1462": 30194,
  "et 1462.": 30191,
  "et 147": 28559,
  "et 1475": 31557,
  "et 1475.": 31556,
  "et 1477": 28553,
  "et 1477.": 28545,
  "et 15": 25563,
  "et 15 f": 31179,
  "et 15 fo": 31174,
  "et 153": 25555,
  "et 1532": 25546,
  "et 1532.": 25536,
  "et 155": 28085,
  "et 1551": 28083,
  "et 1551.": 28081,
  "et 1552": 31079,
  "et 1552.": 31078,
  "et 157": 31906,
  "et 157.": 31903,
  "et 158": 28532,
  "et 1585": 28530,
  "et 1585.": 28528,
  "et 16": 20189,
  "et 162": 26704,
  "et 1624": 26687,
  "et 1624.": 26671,
  "et 1628": 28932,
  "et 1628.": 28929,
  "et 167": 31185,
  "et 167.": 31182,
  "et 1670": 31357,
  "et 1670.": 31309,
  "et 168": 20069,
  "et 1689": 19939,
  "et 1689.": 19807,
  "et 17": 15850,
  "et 172": 15764,
  "et 172.": 15670,
  "et 178": 29978,
  "et 1785": 29970,
  "et 1785.": 29960,
  "et 18": 14260,
  "et 18.": 21107,
  "et 183": 25177,
  "et 1837": 25175,
  "et 1837.": 25173,
  "et 185": 14184,
  "et 185.": 14101,
  "et 189": 28960,
  "et 189.": 28955,
  "et 19": 26571,
  "et 19 f": 30224,
  "et 19 fo": 30219,
  "et 190": 30853,
  "et 190.": 30852,
  "et 197": 26508,
  "et 1972": 28702,
  "et 1972.": 28698,
  "et 1973": 26432,
  "et 1973.": 26350,
  "et 198": 27748,
  "et 1984": 27636,
  "et 1984.": 27515,
  "et 2": 17409,
  "et 20": 23744,
  "et 206": 23734,
  "et 2062": 23720,
  "et 2062.": 23706,
  "et 2063": 31159,
  "et 2063.": 31155,
  "et 21": 17402,
  "et 214": 28827,
  "et 2144": 30280,
  "et 2144.": 30276,
  "et 2148": 28818,
  "et 2148.": 28808,
  "et 215": 17393,
  "et 2156": 17386,
  "et 2156.": 17374,
  "et 216": 31546,
  "et 2163": 31541,
  "et 2163.": 31535,
  "et 219": 20905,
  "et 2191": 20847,
  "et 2191.": 20785,
  "et 22": 22160,
  "et 220": 22154,
  "et 2201": 22147,
  "et 2201.": 22139,
  "et 221": 29836,
  "et 2216": 29787,
  "et 2216.": 29731,
  "et 23": 29014,
  "et 231": 29550,
  "et 2319": 29548,
  "et 2319.": 29546,
  "et 236": 30821,
  "et 2365": 30815,
  "et 2365.": 30809,
  "et 239": 29012,
  "et 2395": 29009,
  "et 2395.": 29007,
  "et 24": 31012,
  "et 248": 31010,
  "et 2484": 31007,
  "et 2484.": 31005,
  "et 25": 28514,
  "et 256": 28508,
  "et 2560": 28500,
  "et 2560.": 28492,
  "et 257": 30305,
  "et 2571": 30300,
  "et 2571.": 30293,
  "et 2576": 30507,
  "et 2576.": 30502,
  "et 26": 25475,
  "et 260": 30966,
  "et 2609": 30964,
  "et 2609.": 30962,
  "et 265": 29424,
  "et 2652": 29416,
  "et 2652.": 29406,
  "et 269": 25464,
  "et 2696": 25450,
  "et 2696.": 25437,
  "et 2697": 31710,
  "et 2697.": 31709,
  "et 2698": 29106,
  "et 2698.": 29050,
  "et 27": 30076,
  "et 272": 31975,
  "et 2729": 31973,
  "et 2729.": 31971,
  "et 275": 30070,
  "et 2750": 30761,
  "et 2750.": 30757,
  "et 2756": 30062,
  "et 2756.": 30055,
  "et 28": 28117,
  "et 280": 28112,
  "et 280.": 28106,
  "et 283": 29460,
  "et 2837": 29458,
  "et 2837.": 29456,
  "et 285": 31634,
  "et 2859": 31632,
  "et 2859.": 31630,
  "et 286": 30535,
  "et 2868": 30528,
  "et 2868.": 30520,
  "et 288": 31612,
  "et 288.": 31611,
  "et 29": 23559,
  "et 290": 28266,
  "et 2901": 28261,
  "et 2901.": 28256,
  "et 292": 24344,
  "et 2928": 24339,
  "et 2928.": 24334,
  "et 297": 26253,
  "et 2971": 26251,
  "et 2971.": 26249,
  "et 298": 23485,
  "et 2982": 23401,
  "et 2982.": 23313,
  "et 3": 13824,
  "et 30": 25143,
  "et 300": 25139,
  "et 3002": 25133,
  "et 3002.": 25127,
  "et 302": 28752,
  "et 302.": 28889,
  "et 3022": 28748,
  "et 3022.": 28743,
  "et 308": 27006,
  "et 308.": 26903,
  "et 309": 28599,
  "et 3098": 28590,
  "et 3098.": 28581,
  "et 31": 26188,
  "et 317": 26177,
  "et 3179": 26163,
  "et 3179.": 26149,
  "et 318": 31652,
  "et 3184": 31649,
  "et 3184.": 31645,
  "et 32": 30636,
  "et 320": 30625,
  "et 3209": 30609,
  "et 3209.": 30595,
  "et 328": 31600,
  "et 3285": 31597,
  "et 3285.": 31592,
  "et 33": 22835,
  "et 330": 22777,
  "et 3304": 22713,
  "et 3304.": 22644,
  "et 338": 23102,
  "et 3382": 23037,
  "et 3382.": 22970,
  "et 3383": 30424,
  "et 3383.": 30421,
  "et 34": 27464,
  "et 340": 27459,
  "et 3407": 27453,
  "et 3407.": 27448,
  "et 344": 28468,
  "et 3443": 28462,
  "et 3443.": 28452,
  "et 3449": 31937,
  "et 3449.": 31931,
  "et 36": 19041,
  "et 361": 31124,
  "et 3616": 31119,
  "et 3616.": 31113,
  "et 362": 18969,
  "et 3628": 18888,
  "et 3628.": 18805,
  "et 368": 24013,
  "et 368.": 23976,
  "et 37": 22435,
  "et 373": 31865,
  "et 3732": 31855,
  "et 3732.": 31845,
  "et 377": 22367,
  "et 3771": 22290,
  "et 3771.": 22205,
  "et 38": 13707,
  "et 380": 30230,
  "et 380.": 30227,
  "et 381": 13585,
  "et 3815": 13460,
  "et 3815.": 13339,
  "et 383": 31724,
  "et 3833": 31721,
  "et 3833.": 31718,
  "et 386": 24272,
  "et 386.": 24265,
  "et 39": 30459,
  "et 398": 30455,
  "et 3982": 30450,
  "et 3982.": 30445,
  "et 399": 30984,
  "et 399.": 30981,
  "et 4": 15355,
  "et 4.": 29453,
  "et 40": 22559,
  "et 401": 22557,
  "et 401.": 22555,
  "et 405": 31823,
  "et 4054": 31818,
  "et 4054.": 31813,
  "et 41": 28921,
  "et 415": 28919,
  "et 4154": 28916,
  "et 4154.": 28914,
  "et 417": 31793,
  "et 4170": 31784,
  "et 4170.": 31773,
  "et 42": 19538,
  "et 420": 19532,
  "et 420.": 28220,
  "et 4206": 19524,
  "et 4206.": 19517,
  "et 43": 27284,
  "et 431": 29677,
  "et 4316": 29675,
  "et 4316.": 29673,
  "et 436": 29561,
  "et 4360": 29559,
  "et 4360.": 29557,
  "et 437": 31993,
  "et 4374": 31988,
  "et 4374.": 31983,
  "et 438": 27282,
  "et 438.": 27280,
  "et 44": 31093,
  "et 442": 31091,
  "et 4423": 31088,
  "et 4423.": 31086,
  "et 45": 26215,
  "et 453": 29528,
  "et 4537": 29523,
  "et 4537.": 29517,
  "et 457": 26213,
  "et 457.": 26211,
  "et 4574": 31209,
  "et 4574.": 31198,
  "et 46": 15226,
  "et 466": 28026,
  "et 4662": 28024,
  "et 4662.": 28022,
  "et 467": 15083,
  "et 4676": 14932,
  "et 4676.": 14784,
  "et 468": 19682,
  "et 4687": 19643,
  "et 4687.": 19595,
  "et 469": 28771,
  "et 4691": 28769,
  "et 4691.": 28767,
  "et 47": 25507,
  "et 471": 30722,
  "et 471.": 30721,
  "et 476": 25504,
  "et 4763": 30736,
  "et 4763.": 30732,
  "et 4765": 25500,
  "et 4765.": 25497,
  "et 479": 28865,
  "et 4791": 28859,
  "et 4791.": 28853,
  "et 48": 25249,
  "et 480": 30248,
  "et 4804": 30560,
  "et 4804.": 30553,
  "et 4808": 30242,
  "et 4808.": 30236,
  "et 481": 26752,
  "et 4816": 26750,
  "et 4816.": 26748,
  "et 482": 25247,
  "et 4823": 25244,
  "et 4823.": 25242,
  "et 49": 25319,
  "et 49.": 30884,
  "et 493": 31962,
  "et 4934": 31960,
  "et 4934.": 31958,
  "et 499": 25313,
  "et 4994": 25306,
  "et 4994.": 25298,
  "et 5": 17315,
  "et 50": 22597,
  "et 50.": 22589,
  "et 502": 30104,
  "et 5026": 30100,
  "et 5026.": 30095,
  "et 51": 27437,
  "et 511": 31277,
  "et 511.": 31272,
  "et 514": 27433,
  "et 5144": 27429,
  "et 5144.": 27424,
  "et 517": 28074,
  "et 5179": 28072,
  "et 5179.": 28070,
  "et 52": 30031,
  "et 526": 30472,
  "et 5265": 30470,
  "et 5265.": 30468,
  "et 528": 30025,
  "et 5281": 30018,
  "et 5281.": 30010,
  "et 55": 24713,
  "et 554": 24634,
  "et 554.": 24546,
  "et 5543": 30674,
  "et 5543.": 30669,
  "et 56": 25378,
  "et 566": 25367,
  "et 5663": 25355,
  "et 5663.": 25343,
  "et 57": 29623,
  "et 576": 29617,
  "et 5760": 29606,
  "et 5760.": 29596,
  "et 579": 30995,
  "et 5794": 30993,
  "et 5794.": 30991,
  "et 58": 17274,
  "et 584": 23805,
  "et 5840": 23797,
  "et 5840.": 23788,
  "et 589": 17226,
  "et 5890": 17171,
  "et 5890.": 17115,
  "et 59": 23875,
  "et 590": 24101,
  "et 5903": 24097,
  "et 5903.": 24093,
  "et 599": 23866,
  "et 5995": 23854,
  "et 5995.": 23843,
  "et 6": 18522,
  "et 60": 19563,
  "et 600": 30928,
  "et 6001": 30923,
  "et 6001.": 30917,
  "et 605": 19560,
  "et 6054": 27257,
  "et 6054.": 27253,
  "et 6055": 19556,
  "et 6055.": 19553,
  "et 609": 31684,
  "et 6096": 31682,
  "et 6096.": 31680,
  "et 61": 18515,
  "et 611": 18506,
  "et 6116": 18497,
  "et 6116.": 18488,
  "et 614": 30581,
  "et 6141": 30579,
  "et 6141.": 30577,
  "et 615": 28049,
  "et 6150": 28044,
  "et 6150.": 28037,
  "et 62": 20668,
  "et 62.": 20613,
  "et 63": 21927,
  "et 631": 21827,
  "et 631.": 23769,
  "et 6319": 21717,
  "et 6319.": 21604,
  "et 632": 24128,
  "et 6326": 24123,
  "et 6326.": 24117,
  "et 637": 27272,
  "et 637.": 27271,
  "et 66": 19398,
  "et 664": 19340,
  "et 6644": 19272,
  "et 6644.": 19200,
  "et 67": 28177,
  "et 674": 28168,
  "et 6743": 29578,
  "et 6743.": 29574,
  "et 6746": 28157,
  "et 6746.": 28145,
  "et 678": 29305,
  "et 678.": 29299,
  "et 69": 28413,
  "et 690": 28393,
  "et 6906": 28367,
  "et 6906.": 28341,
  "et 693": 31578,
  "et 6931": 31574,
  "et 6931.": 31570,
  "et 7": 14674,
  "et 70": 28210,
  "et 700": 28206,
  "et 700.": 28201,
  "et 72": 18698,
  "et 722": 30486,
  "et 7223": 30483,
  "et 7223.": 30480,
  "et 729": 18655,
  "et 7298": 18610,
  "et 7298.": 18561,
  "et 73": 29662,
  "et 730": 29656,
  "et 7308": 29648,
  "et 7308.": 29640,
  "et 737": 31672,
  "et 737.": 31669,
  "et 74": 25164,
  "et 748": 25162,
  "et 7486": 25159,
  "et 7486.": 25157,
  "et 76": 25522,
  "et 761": 25520,
  "et 7615": 25517,
  "et 7615.": 25515,
  "et 762": 30355,
  "et 7620": 30349,
  "et 7620.": 30342,
  "et 764": 30873,
  "et 764.": 30868,
  "et 77": 14631,
  "et 773": 14581,
  "et 7739": 14529,
  "et 7739.": 14472,
  "et 774": 16736,
  "et 7745": 16610,
  "et 7745.": 16473,
  "et 776": 17801,
  "et 7765": 17788,
  "et 7765.": 17770,
  "et 779": 25278,
  "et 7791": 25271,
  "et 7791.": 25263,
  "et 78": 28636,
  "et 785": 31104,
  "et 785.": 31103,
  "et 787": 28634,
  "et 7879": 28631,
  "et 7879.": 28629,
  "et 79": 25226,
  "et 797": 25216,
  "et 7970": 25204,
  "et 7970.": 25193,
  "et 8": 21094,
  "et 80": 29391,
  "et 804": 30178,
  "et 8044": 30172,
  "et 8044.": 30165,
  "et 805": 29387,
  "et 8051": 29381,
  "et 8051.": 29376,
  "et 81": 31059,
  "et 813": 31052,
  "et 8136": 31043,
  "et 8136.": 31034,
  "et 83": 24875,
  "et 832": 24869,
  "et 832.": 24863,
  "et 84": 31756,
  "et 844": 31751,
  "et 8449": 31746,
  "et 8449.": 31741,
  "et 85": 30407,
  "et 853": 30903,
  "et 8537": 30898,
  "et 8537.": 30893,
  "et 855": 30397,
  "et 8552": 30701,
  "et 8552.": 30697,
  "et 8554": 30385,
  "et 8554.": 30374,
  "et 86": 21158,
  "et 864": 21147,
  "et 8646": 21133,
  "et 8646.": 21119,
  "et 865": 31140,
  "et 8659": 31138,
  "et 8659.": 31136,
  "et 89": 21088,
  "et 895": 21081,
  "et 8957": 21073,
  "et 8957.": 21065,
  "et 897": 29332,
  "et 8971": 29327,
  "et 8971.": 29320,
  "et 899": 28792,
  "et 899.": 28788,
  "et 9": 18354,
  "et 93": 30954,
  "et 938": 30952,
  "et 9381": 30949,
  "et 9381.": 30947,
  "et 95": 24171,
  "et 950": 24164,
  "et 9507": 24155,
  "et 9507.": 24146,
  "et 96": 18249,
  "et 96.": 30790,
  "et 962": 18131,
  "et 962.": 18006,
  "et 97": 24399,
  "et 970": 24389,
  "et 9706": 24376,
  "et 9706.": 24364,
  "et 972": 29360,
  "et 9726": 29355,
  "et 9726.": 29349,
  "et 99": 31700,
  "et 991": 31698,
  "et 9911": 31695,
  "et 9911.": 31693,
  "et 993": 31917,
  "et 993.": 31915,
  "et 998": 31888,
  "et 9984": 31886,
  "et 9984.": 31884,
  "et =": 21511,
  "et = 1": 21382,
  "et = 11": 30509,
  "et = 13": 21307,
  "et = 15": 31183,
  "et = 19": 30228,
  "et a": 22485,
  "et ae": 22425,
  "et aei": 22355,
  "et aeio": 22277,
  "et aeiou": 22194,
  "et i": 25968,
  "et in": 25898,
  "et in a": 25708,
  "et(": 27241,
  "et(l": 27202,
  "et(le": 27140,
  "et(lef": 27056,
  "et(left": 26957,
  "et(left,": 26844,
  "et(r": 27210,
  "et(ri": 27150,
  "et(rig": 27070,
  "et(righ": 26973,
  "et(right": 26862,
  "et)": 26037,
  "et):": 25989,
  "et:": 26054,
  "eta": 15446,
  "etai": 15324,
  "etain": 15190,
  "etaini": 15045,
  "etainin": 14893,
  "etaining": 14744,
  "ete": 13930,
  "ete a": 24022,
  "ete a f": 23942,
  "ete a fu": 23899,
  "eter": 323,
  "eter s": 13581,
  "eter se": 13456,
  "eter set": 13335,
  "eterm": 19019,
  "etermi": 18943,
  "etermin": 904,
  "etermine": 18773,
  "eth": 17024,
  "ethe": 16926,
  "ether": 16816,
  "ether a": 18589,
  "ether an": 18780,
  "ether t": 16561,
  "ether tw": 16422,
  "eti": 24082,
  "etio": 24066,
  "etion": 24043,
  "etion p": 23972,
  "etion pa": 23930,
  "etu": 13962,
  "etur": 13854,
  "eturn": 13736,
  "eturn \"": 13487,
  "eturn \"\"": 17123,
  "eturn \"a": 13365,
  "eturn \"d": 18562,
  "eturn -": 25797,
  "eturn -1": 25695,
  "eturn F": 18896,
  "eturn Fa": 18812,
  "eturn T": 18934,
  "eturn Tr": 18852,
  "eturn [": 14105,
  "eturn [q": 24484,
  "eturn [v": 14022,
  "eturn a": 18085,
  "eturn ac": 17953,
  "eturn ar": 23343,
  "eturn at": 19572,
  "eturn d": 22746,
  "eturn de": 22682,
  "eturn f": 19991,
  "eturn fa": 24886,
  "eturn fl": 21225,
  "eturn fr": 19859,
  "eturn i": 22725,
  "eturn in": 22657,
  "eturn l": 23044,
  "eturn li": 22977,
  "eturn m": 19286,
  "eturn ma": 19215,
  "eturn mi": 20480,
  "eturn p": 31340,
  "eturn pr": 31288,
  "eturn r": 15728,
  "eturn re": 15629,
  "eturn s": 16647,
  "eturn se": 17929,
  "eturn so": 16512,
  "eturn su": 17452,
  "eturn t": 17494,
  "eturn th": 17426,
  "eturn to": 31335,
  "eturn v": 14533,
  "eturn va": 14476,
  "eturn {": 14973,
  "eturn {k": 14822,
  "eue": 24829,
  "eue =": 24731,
  "eue = d": 24568,
  "eue = de": 24475,
  "eue)": 24814,
  "eue))": 24758,
  "eue))]": 24687,
  "eue.": 24802,
  "eue.p": 24742,
  "eue.po": 24669,
  "eue.pop": 24584,
  "eue.popl": 24492,
  "eues": 24781,
  "eues p": 24631,
  "eues pa": 24543,
  "eues par": 24451,
  "eve": 15972,
  "ever": 15904,
  "evers": 15827,
  "everse": 15737,
  "everse a": 17090,
  "everse u": 15535,
  "everse=": 19655,
  "everse=F": 19610,
  "eversed": 17193,
  "eversed(": 17136,
  "ex": 370,
  "ex +": 14348,
  "ex + 2": 26709,
  "ex + 2]": 26693,
  "ex + 2])": 26677,
  "ex + 3": 19364,
  "ex + 3]": 19299,
  "ex + 3])": 19230,
  "ex + 4": 14206,
  "ex + 4]": 14125,
  "ex + 4])": 30599,
  "ex i": 14354,
  "ex in": 14287,
  "ex in r": 14133,
  "ex in ra": 14050,
  "ex o": 25962,
  "ex of": 25893,
  "ex of a": 25702,
  "ex:": 14405,
  "ex:i": 14345,
  "ex:in": 14276,
  "ex:ind": 14202,
  "ex:inde": 14121,
  "ex:index": 14038,
  "exc": 22105,
  "exce": 22038,
  "excee": 21953,
  "exceed": 21857,
  "exceeds": 21749,
  "excep": 22851,
  "except": 22794,
  "except (": 22663,
  "exp": 16389,
  "expr": 16344,
  "expre": 16286,
  "expres": 16218,
  "express": 16139,
  "expressi": 16056,
  "ext": 394,
  "ext =": 27876,
  "ext = n": 27669,
  "ext = ne": 27549,
  "ext r": 20652,
  "ext re": 20592,
  "ext rea": 20528,
  "ext read": 20459,
  "ext)": 17322,
  "ext))": 17299,
  "ext)))": 23142,
  "ext)))[": 23081,
  "ext)))[:": 23014,
  "ext))[": 17254,
  "ext))[:": 17202,
  "ext))[:l": 17145,
  "ext),": 22469,
  "ext), m": 22333,
  "ext), ma": 22253,
  "ext):": 17282,
  "ext.": 20722,
  "ext.s": 20680,
  "ext.sp": 20627,
  "ext.spl": 20560,
  "ext.spli": 20494,
  "ext_": 27940,
  "ext_n": 27860,
  "ext_no": 27762,
  "ext_nod": 27653,
  "ext_node": 27533,
  "ey)": 15526,
  "ey))": 15429,
  "ey,": 15510,
  "ey, v": 15279,
  "ey, va": 15139,
  "ey, val": 14990,
  "ey, valu": 14837,
  "ey:": 15506,
  "ey: v": 15270,
  "ey: va": 15129,
  "ey: val": 14980,
  "ey: valu": 14828,
  "ey_": 15482,
  "ey_l": 15369,
  "ey_li": 15240,
  "ey_lim": 15097,
  "ey_limi": 14946,
  "ey_limit": 14796,
  "eys": 15451,
  "eys o": 15197,
  "eys of": 15053,
  "eys of a": 14750,
  "eys(": 29930,
  "eys(v": 29897,
  "eys(va": 29854,
  "eys(val": 29806,
  "eys(valu": 29749,
  "f": 73,
  "f _": 18444,
  "f __": 18364,
  "f __i": 18260,
  "f __in": 18143,
  "f __ini": 18018,
  "f __init": 17885,
  "f a": 15452,
  "f a t": 25894,
  "f a ta": 25805,
  "f a tar": 25704,
  "f a targ": 25593,
  "f a w": 19386,
  "f a wi": 19328,
  "f a win": 19258,
  "f a wind": 19186,
  "f ad": 18387,
  "f add": 18289,
  "f add(": 18173,
  "f add(s": 18047,
  "f add(se": 17912,
  "f at": 15332,
  "f at m": 15055,
  "f at mo": 14903,
  "f at mos": 14753,
  "f c": 22091,
  "f co": 22020,
  "f cou": 21935,
  "f coun": 21836,
  "f count": 21727,
  "f l": 15520,
  "f le": 15420,
  "f len": 15295,
  "f len(": 15158,
  "f len(s": 15011,
  "f len(st": 14858,
  "f s": 13944,
  "f si": 14320,
  "f siz": 14249,
  "f size": 14172,
  "f size 4": 14002,
  "f so": 13837,
  "f sol": 13719,
  "f solv": 13596,
  "f solve": 13470,
  "f solve(": 13347,
  "f v": 13970,
  "f va": 13864,
  "f val": 13745,
  "f valu": 13624,
  "f value": 13498,
  "f values": 25663,
  "f w": 19483,
  "f wi": 19447,
  "f wid": 19393,
  "f widt": 19335,
  "f width": 19265,
  "f, a": 18391,
  "f, am": 18294,
  "f, amo": 18179,
  "f, amou": 18054,
  "f, amoun": 17919,
  "f, s": 18374,
  "f, st": 18272,
  "f, sta": 18155,
  "f, star": 18030,
  "f, start": 17897,
  "f, v": 27937,
  "f, va": 27855,
  "f, val": 27756,
  "f, valu": 27646,
  "f, value": 27524,
  "f.n": 28005,
  "f.ne": 27951,
  "f.nex": 27874,
  "f.next": 27777,
  "f.next =": 27547,
  "f.v": 18461,
  "f.va": 18383,
  "f.val": 18282,
  "f.valu": 18165,
  "f.value": 18039,
  "fac": 25106,
  "fact": 25080,
  "facto": 25049,
  "factor": 25006,
  "factori": 24953,
  "factoria": 24891,
  "fal": 22921,
  "fall": 22879,
  "fallb": 22830,
  "fallba": 22770,
  "fallbac": 22707,
  "fallback": 22636,
  "fau": 22931,
  "faul": 22892,
  "fault": 22843,
  "fault=": 22785,
  "fault=1": 22721,
  "fault=13": 29292,
  "fault=14": 28493,
  "fault=16": 30554,
  "fault=17": 22653,
  "fault=18": 30521,
  "fault=2": 28820,
  "fault=20": 28810,
  "fault=4": 31045,
  "fault=4)": 31036,
  "fault=7": 23799,
  "fault=7)": 23790,
  "fault_": 26517,
  "fault_l": 26443,
  "fault_li": 26362,
  "fel": 22918,
  "fely": 22874,
  "fely w": 22762,
  "fely wi": 22700,
  "fely wit": 22629,
  "ffs": 21549,
  "ffse": 21494,
  "ffset": 21433,
  "ffset 1": 21280,
  "ffset 11": 30497,
  "ffset 13": 21197,
  "ffset 15": 31172,
  "ffset 19": 30217,
  "ffset =": 21305,
  "fi": 680,
  "fig": 587,
  "figu": 22047,
  "figur": 21962,
  "figure": 21866,
  "figured": 21758,
  "fil": 20743,
  "file": 20710,
  "file f": 20603,
  "file fo": 20536,
  "file for": 20469,
  "files": 20665,
  "files p": 20541,
  "files pa": 20474,
  "fill": 1105,
  "filln": 20970,
  "fillna": 1108,
  "fillna(": 20865,
  "fillna(0": 20803,
  "filt": 26603,
  "filte": 26549,
  "filter": 26480,
  "filter a": 29023,
  "filter r": 26316,
  "fin": 19475,
  "find": 19434,
  "find t": 19317,
  "find th": 19246,
  "find the": 19172,
  "fir": 22079,
  "firs": 22000,
  "first": 848,
  "first +": 21805,
  "first n": 21700,
  "first)": 21902,
  "first,": 21876,
  "first, s": 21652,
  "first-": 24615,
  "first-i": 24525,
  "first-in": 24432,
  "first-o": 24530,
  "first-ou": 24437,
  "fix": 951,
  "fix a": 28400,
  "fix an": 28376,
  "fix an a": 28321,
  "fix s": 31430,
  "fix su": 31391,
  "fix sum": 31347,
  "fix sums": 31296,
  "fix t": 14596,
  "fix th": 14544,
  "fix the": 14487,
  "flo": 21561,
  "floa": 21513,
  "float": 21454,
  "float(": 21386,
  "float(n": 21312,
  "float(np": 21230,
  "for": 756,
  "for 1": 18512,
  "for 13": 30740,
  "for 13 f": 30728,
  "for 14": 30679,
  "for 14 f": 30665,
  "for 17": 18503,
  "for 17 f": 18482,
  "for 2": 30074,
  "for 20": 30067,
  "for 20 f": 30050,
  "for 4": 28472,
  "for 4 f": 28458,
  "for 4 fo": 28449,
  "for 6": 14618,
  "for 6 f": 14511,
  "for 6 fo": 14453,
  "for 9": 17398,
  "for 9 f": 17380,
  "for 9 fo": 17368,
  "for _": 21979,
  "for _ i": 21776,
  "for _ in": 21662,
  "for a": 31435,
  "for at": 31397,
  "for at m": 31301,
  "for c": 22465,
  "for ch": 22399,
  "for cha": 22325,
  "for char": 22242,
  "for d": 17658,
  "for di": 17600,
  "for dig": 17537,
  "for digi": 17469,
  "for div": 18901,
  "for divi": 18816,
  "for i": 14283,
  "for in": 14210,
  "for ind": 14128,
  "for inde": 14046,
  "for k": 15276,
  "for ke": 15135,
  "for key": 14987,
  "for key,": 14834,
  "for l": 27111,
  "for le": 27023,
  "for lef": 26920,
  "for left": 26806,
  "for n": 25069,
  "for nu": 25033,
  "for num": 24985,
  "for numb": 24928,
  "for t": 13688,
  "for th": 13565,
  "for the": 13440,
  "for u": 27087,
  "for up": 26992,
  "for up t": 26774,
  "for v": 15860,
  "for va": 15775,
  "for val": 15678,
  "for valu": 15574,
  "form": 16330,
  "form u": 16193,
  "form up": 16113,
  "fra": 20400,
  "fram": 20318,
  "frame": 1095,
  "frame =": 19962,
  "frame.": 20120,
  "frame.f": 20859,
  "frame.fi": 20797,
  "frame.g": 19996,
  "frame.gr": 19864,
  "frame[": 26522,
  "frame[\"": 26454,
  "frame[\"v": 26373,
  "frame[f": 26448,
  "frame[fr": 26367,
  "fro": 20740,
  "from": 683,
  "from a": 20599,
  "from a f": 20464,
  "from c": 24636,
  "from co": 24547,
  "from col": 24455,
  "fromk": 29892,
  "fromke": 29849,
  "fromkey": 29801,
  "fromkeys": 820,
  "fs": 869,
  "fse": 21550,
  "fset": 21495,
  "fset 1": 21361,
  "fset 11": 30504,
  "fset 13": 21281,
  "fset 15": 31178,
  "fset 19": 30223,
  "fset =": 21381,
  "fset = 1": 21223,
  "ft": 378,
  "ft +": 26002,
  "ft + r": 25861,
  "ft + ri": 25764,
  "ft + rig": 25657,
  "ft =": 16970,
  "ft = l": 16747,
  "ft = le": 16619,
  "ft = lef": 16482,
  "ft = m": 25881,
  "ft = mi": 25788,
  "ft = mid": 25684,
  "ft(": 24846,
  "ft()": 24809,
  "ft() f": 24677,
  "ft() fo": 24591,
  "ft() for": 24500,
  "ft)": 15494,
  "ft,": 15476,
  "ft, 0": 27141,
  "ft, 0)": 27058,
  "ft, 0) +": 26847,
  "ft, r": 15234,
  "ft, ri": 15091,
  "ft, rig": 14941,
  "ft, righ": 14792,
  "ft.": 17058,
  "ft.r": 16973,
  "ft.re": 16872,
  "ft.rep": 16752,
  "ft.repl": 16624,
  "ft.repla": 16487,
  "ft]": 27238,
  "ft] =": 27131,
  "ft] = d": 26945,
  "ft] = de": 26831,
  "fte": 17038,
  "fter": 16943,
  "fter i": 16713,
  "fter ig": 16584,
  "fter ign": 16444,
  "fun": 13891,
  "func": 13772,
  "funct": 13652,
  "functi": 13528,
  "functio": 13405,
  "function": 13283,
  "g": 74,
  "g +": 31503,
  "g +=": 31483,
  "g += v": 31410,
  "g += va": 31367,
  "g += val": 31320,
  "g =": 31502,
  "g = 0": 31446,
  "g P": 21027,
  "g Pa": 20992,
  "g Pan": 20946,
  "g Pand": 20893,
  "g Panda": 20834,
  "g Pandas": 20770,
  "g a": 15981,
  "g a s": 15839,
  "g a st": 15751,
  "g a sta": 15655,
  "g a stac": 15552,
  "g al": 22480,
  "g alp": 22419,
  "g alph": 22349,
  "g alpha": 22271,
  "g alphab": 22188,
  "g an": 17305,
  "g and": 17263,
  "g and k": 17158,
  "g and ke": 17100,
  "g at": 18347,
  "g at 1": 18123,
  "g at 12": 17995,
  "g at 13": 28041,
  "g at 16": 25302,
  "g at 17": 31268,
  "g at 18": 30014,
  "g at 2": 28596,
  "g at 20": 28586,
  "g at 6": 24269,
  "g at 6 f": 24256,
  "g at 9": 24306,
  "g at 9 f": 24293,
  "g b": 26026,
  "g bi": 25974,
  "g bin": 25909,
  "g bina": 25825,
  "g binar": 25724,
  "g binary": 25614,
  "g k": 15450,
  "g ke": 15329,
  "g key": 15196,
  "g keys": 15051,
  "g keys o": 14749,
  "g p": 14707,
  "g pa": 14673,
  "g par": 14629,
  "g para": 14579,
  "g param": 14526,
  "g parame": 14468,
  "g s": 23656,
  "g sh": 23615,
  "g sha": 23556,
  "g shap": 23480,
  "g shape": 23396,
  "g t": 17041,
  "g th": 16951,
  "g the": 16846,
  "g the m": 16593,
  "g the ma": 16453,
  "g v": 29941,
  "g va": 29912,
  "g val": 29874,
  "g valu": 29828,
  "g value": 29776,
  "g values": 29720,
  "gIO": 23273,
  "gIO(": 23242,
  "gIO(t": 23197,
  "gIO(te": 23139,
  "gIO(tex": 23077,
  "gIO(text": 23009,
  "gat": 20379,
  "gate": 1122,
  "gate v": 20043,
  "gate va": 19912,
  "gate val": 19776,
  "ge": 471,
  "ge d": 15310,
  "ge di": 15174,
  "ge dic": 15027,
  "ge dict": 14874,
  "ge dicti": 14726,
  "ge(": 14417,
  "ge(0": 14361,
  "ge(0,": 14293,
  "ge(0, l": 14139,
  "ge(0, le": 14056,
  "ge(2": 19116,
  "ge(2,": 19058,
  "ge(2, i": 18911,
  "ge(2, in": 18826,
  "ge(2, v": 24990,
  "ge(2, va": 24935,
  "ge(c": 22065,
  "ge(co": 21982,
  "ge(cou": 21891,
  "ge(coun": 21782,
  "ge(count": 21668,
  "ge(l": 19472,
  "ge(le": 19426,
  "ge(len": 19370,
  "ge(len(": 19307,
  "ge(len(q": 24502,
  "ge(len(v": 19237,
  "ger": 13908,
  "ger i": 19027,
  "ger is": 18953,
  "ger is p": 18786,
  "ger s": 22819,
  "ger sa": 22758,
  "ger saf": 22696,
  "ger safe": 22624,
  "ger w": 13671,
  "ger wi": 13549,
  "ger wit": 13425,
  "ger with": 13303,
  "ges": 914,
  "ges f": 27091,
  "ges fo": 26998,
  "ges for": 26893,
  "ges)": 27176,
  "ges):": 27104,
  "ges[": 27186,
  "ges[:": 27119,
  "ges[:d": 27033,
  "ges[:de": 26931,
  "ges[:deg": 26816,
  "get": 476,
  "get i": 25897,
  "get in": 25809,
  "get in a": 25597,
  "get(": 27201,
  "get(l": 27139,
  "get(le": 27055,
  "get(lef": 26956,
  "get(left": 26843,
  "get(r": 27149,
  "get(ri": 27069,
  "get(rig": 26972,
  "get(righ": 26861,
  "get)": 25988,
  "get):": 25925,
  "get:": 26015,
  "gg": 594,
  "ggi": 14706,
  "ggin": 14670,
  "gging": 622,
  "gging p": 14522,
  "gging pa": 14464,
  "ggr": 20375,
  "ggre": 20278,
  "ggreg": 20166,
  "ggrega": 20041,
  "ggregat": 19909,
  "ggregate": 19773,
  "ght": 15479,
  "ght =": 16886,
  "ght = 0": 25744,
  "ght = 0,": 25636,
  "ght = m": 25793,
  "ght = mi": 25690,
  "ght = r": 16639,
  "ght = ri": 16503,
  "ght i": 27114,
  "ght in": 27027,
  "ght in e": 26809,
  "ght)": 15366,
  "ght) /": 25864,
  "ght) //": 25768,
  "ght):": 15238,
  "ght,": 27212,
  "ght, 0": 27073,
  "ght, 0)": 26977,
  "ght.": 16989,
  "ght.r": 16890,
  "ght.re": 16773,
  "ght.rep": 16645,
  "ght.repl": 16509,
  "ght:": 25997,
  "ght]": 27209,
  "ght] =": 27067,
  "ght] = d": 26856,
  "gin": 13923,
  "ging": 14671,
  "ging p": 14576,
  "ging pa": 14523,
  "ging par": 14465,
  "ginn": 13813,
  "ginne": 13695,
  "ginner": 13572,
  "ginner p": 13325,
  "git": 17726,
  "git i": 17661,
  "git in": 17604,
  "git in s": 17472,
  "git s": 17626,
  "git su": 17568,
  "git sum": 17503,
  "git)": 17706,
  "git) f": 17597,
  "git) fo": 17534,
  "git) for": 17466,
  "gno": 17040,
  "gnor": 16947,
  "gnore": 16859,
  "gnored": 16739,
  "gnored =": 16474,
  "gnored,": 16634,
  "gnori": 16841,
  "gnorin": 16718,
  "gnoring": 16589,
  "gor": 534,
  "gori": 15348,
  "gorit": 15219,
  "gorith": 15075,
  "gorithm": 14923,
  "gorithms": 14774,
  "gr": 570,
  "gra": 17035,
  "gram": 16939,
  "grams": 16833,
  "grams a": 16578,
  "grams af": 16439,
  "grap": 27157,
  "graph": 1146,
  "graph d": 26876,
  "graph de": 26764,
  "graphs": 27002,
  "graphs p": 26786,
  "gre": 20376,
  "gree": 1159,
  "gree_": 27105,
  "gree_l": 27016,
  "gree_li": 26913,
  "gree_lim": 26800,
  "grees": 27085,
  "grees =": 26917,
  "grees f": 26882,
  "grees fo": 26770,
  "grees.": 27049,
  "grees.g": 26950,
  "grees.ge": 26837,
  "grees[": 27039,
  "grees[l": 26939,
  "grees[le": 26825,
  "grees[r": 26962,
  "grees[ri": 26850,
  "greg": 20279,
  "grega": 20167,
  "gregat": 20042,
  "gregate": 19910,
  "gro": 20382,
  "grou": 20286,
  "group": 871,
  "group w": 19919,
  "group wi": 19783,
  "group\"": 20135,
  "group\")": 20010,
  "group\")[": 19879,
  "group_": 20084,
  "group_l": 19956,
  "group_li": 19823,
  "groupb": 20126,
  "groupby": 1134,
  "groupby(": 19870,
  "gs a": 16934,
  "gs ar": 16827,
  "gs are": 16703,
  "gs are a": 16432,
  "gs p": 16960,
  "gs pa": 16856,
  "gs par": 16735,
  "gs para": 16608,
  "gs param": 16471,
  "gur": 22113,
  "gure": 22049,
  "gured": 21964,
  "gured m": 21759,
  "gured ma": 21643,
  "h": 75,
  "h 2": 26736,
  "h 2 f": 26715,
  "h 2 fo": 26703,
  "h 2 for": 26685,
  "h 3": 19486,
  "h 3 f": 19396,
  "h 3 fo": 19338,
  "h 3 for": 19269,
  "h 4": 30655,
  "h 4 f": 30635,
  "h 4 fo": 30623,
  "h 4 for": 30607,
  "h N": 23653,
  "h Nu": 23606,
  "h Num": 23541,
  "h NumP": 23464,
  "h NumPy": 23377,
  "h P": 20385,
  "h Pa": 20291,
  "h Pan": 20179,
  "h Pand": 20056,
  "h Panda": 19926,
  "h Pandas": 19790,
  "h a": 16385,
  "h a c": 16276,
  "h a co": 16206,
  "h a com": 16126,
  "h a comp": 16042,
  "h c": 22532,
  "h ca": 22491,
  "h cap": 22432,
  "h cap 1": 23850,
  "h cap 10": 23836,
  "h cap 11": 31150,
  "h cap 13": 24088,
  "h cap 14": 29370,
  "h cap 15": 31565,
  "h cap 17": 29569,
  "h cap 3": 29322,
  "h cap 6": 30295,
  "h cap 9": 22285,
  "h capa": 27744,
  "h capac": 27630,
  "h capaci": 27509,
  "h d": 27215,
  "h de": 27160,
  "h deg": 27082,
  "h degr": 26988,
  "h degre": 26880,
  "h degree": 26768,
  "h f": 22920,
  "h fa": 22878,
  "h fal": 22829,
  "h fall": 22769,
  "h fallb": 22706,
  "h fallba": 22635,
  "h fo": 25983,
  "h for": 25918,
  "h for t": 25733,
  "h for th": 25625,
  "h o": 21547,
  "h of": 21492,
  "h off": 21431,
  "h offs": 21359,
  "h offse": 21279,
  "h offset": 21195,
  "h t": 13911,
  "h th": 13797,
  "h the": 13676,
  "h the b": 13429,
  "h the bo": 13307,
  "h z": 21029,
  "h ze": 20996,
  "h zer": 20952,
  "h zero": 20901,
  "h zero f": 20780,
  "hab": 923,
  "habe": 22483,
  "habet": 22423,
  "habet a": 22274,
  "habet ae": 22191,
  "hap": 699,
  "hape": 700,
  "hape f": 23481,
  "hape fo": 23398,
  "hape for": 23309,
  "hape v": 23458,
  "hape va": 23371,
  "hape val": 23282,
  "hape(": 23591,
  "hape(s": 23523,
  "hape(sh": 23443,
  "hape(sha": 23357,
  "hape)": 23565,
  "hape).": 23528,
  "hape).s": 23449,
  "hape).sh": 23363,
  "hape):": 23492,
  "har": 15457,
  "hara": 477,
  "harac": 15206,
  "haract": 15063,
  "haracte": 14910,
  "haracter": 479,
  "hat": 13898,
  "hat a": 20162,
  "hat ag": 20037,
  "hat agg": 19905,
  "hat aggr": 19769,
  "hat b": 27827,
  "hat bu": 27723,
  "hat bui": 27607,
  "hat buil": 27483,
  "hat c": 13658,
  "hat ch": 16684,
  "hat che": 16552,
  "hat chec": 16414,
  "hat co": 13536,
  "hat com": 13412,
  "hat comp": 13290,
  "hat cou": 20511,
  "hat coun": 20445,
  "hat d": 19015,
  "hat de": 18939,
  "hat det": 18856,
  "hat dete": 18769,
  "hat f": 14593,
  "hat fi": 14542,
  "hat fil": 26400,
  "hat filt": 26313,
  "hat fin": 19244,
  "hat find": 19170,
  "hat fix": 14485,
  "hat m": 15169,
  "hat me": 15022,
  "hat mer": 14868,
  "hat merg": 14721,
  "hat p": 22814,
  "hat pa": 22752,
  "hat par": 22688,
  "hat pars": 22616,
  "hat pr": 24602,
  "hat pro": 24511,
  "hat proc": 24417,
  "hat r": 15823,
  "hat re": 15733,
  "hat rem": 29757,
  "hat remo": 29699,
  "hat rep": 20821,
  "hat repl": 20756,
  "hat res": 23367,
  "hat resh": 23277,
  "hat ret": 17491,
  "hat retu": 17422,
  "hat rev": 15634,
  "hat reve": 15532,
  "hat s": 14232,
  "hat sp": 14152,
  "hat spl": 14069,
  "hat spli": 13983,
  "hat sq": 23987,
  "hat squ": 23947,
  "hat squa": 23904,
  "hat t": 16260,
  "hat tr": 16187,
  "hat tra": 16106,
  "hat tran": 16021,
  "hat u": 18215,
  "hat us": 18096,
  "hat use": 17964,
  "he": 392,
  "he a": 15344,
  "he al": 15215,
  "he alg": 15071,
  "he algo": 14919,
  "he algor": 14770,
  "he ar": 23739,
  "he arr": 23727,
  "he arra": 23713,
  "he array": 23697,
  "he b": 13798,
  "he be": 13691,
  "he beg": 13568,
  "he begi": 13443,
  "he begin": 13322,
  "he bo": 13678,
  "he bou": 13556,
  "he boun": 13431,
  "he bound": 13309,
  "he c": 19093,
  "he co": 19034,
  "he cod": 24001,
  "he code": 23963,
  "he code_": 23919,
  "he con": 18961,
  "he cond": 18881,
  "he condi": 18797,
  "he conf": 24965,
  "he confi": 24906,
  "he d": 14646,
  "he de": 14621,
  "he deb": 14570,
  "he debu": 14517,
  "he debug": 14459,
  "he di": 14600,
  "he dig": 17565,
  "he digi": 17499,
  "he digit": 17431,
  "he div": 14547,
  "he divi": 14490,
  "he divis": 14433,
  "he f": 17819,
  "he fi": 20663,
  "he fil": 20607,
  "he file": 20539,
  "he files": 20473,
  "he fir": 21810,
  "he firs": 21698,
  "he first": 21585,
  "he fu": 17808,
  "he fun": 17796,
  "he func": 17780,
  "he funct": 17761,
  "he g": 27168,
  "he gr": 27093,
  "he gra": 27000,
  "he grap": 26896,
  "he graph": 26784,
  "he i": 16351,
  "he in": 16293,
  "he ind": 25799,
  "he inde": 25698,
  "he index": 25588,
  "he int": 16226,
  "he inte": 16149,
  "he inter": 16067,
  "he l": 27399,
  "he li": 27386,
  "he lin": 27369,
  "he link": 27350,
  "he linke": 27329,
  "he m": 14324,
  "he ma": 16847,
  "he mar": 16724,
  "he mark": 16595,
  "he marke": 16455,
  "he max": 19320,
  "he maxi": 19250,
  "he maxim": 19176,
  "he mi": 14254,
  "he mis": 14177,
  "he misc": 14094,
  "he n": 21497,
  "he nu": 21436,
  "he num": 21365,
  "he nump": 21286,
  "he numpy": 21205,
  "he o": 18350,
  "he oo": 18243,
  "he oop": 18126,
  "he oop p": 17866,
  "he p": 20296,
  "he pa": 20184,
  "he pan": 20062,
  "he pand": 19932,
  "he panda": 19798,
  "he q": 24777,
  "he qu": 24709,
  "he que": 24628,
  "he queu": 24540,
  "he queue": 24447,
  "he r": 23611,
  "he re": 23549,
  "he res": 23472,
  "he resu": 23387,
  "he resul": 23299,
  "he s": 15924,
  "he st": 15845,
  "he sta": 15757,
  "he stac": 15663,
  "he stack": 15560,
  "he str": 16731,
  "he stri": 16603,
  "he strin": 16465,
  "hea": 20413,
  "head": 543,
  "head =": 27783,
  "head = N": 27554,
  "head = h": 27599,
  "head i": 27804,
  "head is": 27697,
  "head(": 20228,
  "head(d": 26539,
  "head(de": 26468,
  "head(def": 26388,
  "head(g": 20110,
  "head(gr": 19985,
  "head(gro": 19852,
  "head(r": 20911,
  "head(ro": 20854,
  "head(row": 20791,
  "head)": 27893,
  "head.": 27909,
  "head.n": 27823,
  "head.ne": 27719,
  "head.nex": 27604,
  "head.v": 27816,
  "head.va": 27710,
  "head.val": 27595,
  "hec": 17019,
  "heck": 16921,
  "heck w": 16687,
  "heck wh": 16556,
  "heck whe": 16417,
  "her": 17025,
  "her a": 18680,
  "her a n": 18590,
  "her a nu": 18537,
  "her an": 18950,
  "her an i": 18781,
  "her t": 16817,
  "her tw": 16694,
  "her two": 16563,
  "het": 17023,
  "heth": 16925,
  "hethe": 16815,
  "hether": 16692,
  "hether a": 18535,
  "hether t": 16421,
  "hi": 494,
  "hil": 15443,
  "hile": 15320,
  "hile h": 27800,
  "hile he": 27694,
  "hile hea": 27578,
  "hile l": 25851,
  "hile le": 25754,
  "hile lef": 25647,
  "hile r": 15040,
  "hile re": 14888,
  "hile ret": 14739,
  "hile s": 15801,
  "hile st": 15708,
  "hile sta": 15606,
  "hms": 15466,
  "hms p": 15222,
  "hms pa": 15079,
  "hms par": 14927,
  "hms para": 14778,
  "hol": 861,
  "hold": 863,
  "hold w": 29151,
  "hold wi": 29099,
  "hold wit": 29042,
  "hold)": 29205,
  "hold):": 29163,
  "hold]": 29215,
  "hold].": 29175,
  "hold].t": 29127,
  "hold].to": 29073,
  "hon": 13889,
  "hon e": 16283,
  "hon ex": 16215,
  "hon exp": 16136,
  "hon expr": 16053,
  "hon f": 13649,
  "hon fu": 13525,
  "hon fun": 13402,
  "hon func": 13280,
  "hon p": 16308,
  "hon pa": 16242,
  "hon par": 16166,
  "hon para": 16084,
  "hre": 29256,
  "hres": 29229,
  "hresh": 29192,
  "hresho": 29148,
  "hreshol": 29096,
  "hreshold": 29039,
  "hs p": 27171,
  "hs pa": 27097,
  "hs par": 27005,
  "hs para": 26901,
  "hs param": 26790,
  "ht =": 16987,
  "ht = 0": 25843,
  "ht = 0,": 25745,
  "ht = m": 25886,
  "ht = mi": 25794,
  "ht = mid": 25691,
  "ht = r": 16768,
  "ht = ri": 16640,
  "ht = rig": 16504,
  "ht i": 27183,
  "ht in": 27115,
  "ht in e": 26925,
  "ht in ed": 26810,
  "ht)": 15480,
  "ht) /": 25942,
  "ht) //": 25865,
  "ht) // 2": 25662,
  "ht):": 15367,
  "ht,": 27247,
  "ht, 0": 27153,
  "ht, 0)": 27074,
  "ht, 0) +": 26866,
  "ht.": 17072,
  "ht.r": 16990,
  "ht.re": 16891,
  "ht.rep": 16774,
  "ht.repl": 16646,
  "ht.repla": 16510,
  "ht:": 26041,
  "ht]": 27245,
  "ht] =": 27148,
  "ht] = d": 26969,
  "ht] = de": 26857,
  "hun": 1027,
  "hunk": 14315,
  "hunks": 14245,
  "hunks o": 14083,
  "hunks of": 13998,
  "i": 76,
  "i n": 22085,
  "i nu": 22011,
  "i num": 21925,
  "i numb": 21823,
  "i numbe": 21712,
  "i number": 21598,
  "ial": 737,
  "ial v": 25053,
  "ial va": 25011,
  "ial val": 24958,
  "ial valu": 24896,
  "iali": 28428,
  "ializ": 28408,
  "ialize": 28387,
  "ialized": 28362,
  "iat": 16397,
  "iate": 855,
  "iate_": 16302,
  "iate_p": 16236,
  "iate_py": 16159,
  "iate_pyt": 16077,
  "ib": 429,
  "ibi": 14692,
  "ibil": 14653,
  "ibili": 14606,
  "ibilit": 14554,
  "ibility": 14497,
  "ibl": 18753,
  "ible": 18726,
  "ible b": 18646,
  "ible by": 18602,
  "ible\"": 18704,
  "ible\" i": 18618,
  "ible\" if": 18570,
  "ibo": 22081,
  "ibon": 22005,
  "ibona": 21920,
  "ibonac": 21817,
  "ibonacc": 21706,
  "ibonacci": 21592,
  "ica": 29939,
  "icat": 813,
  "icate": 29869,
  "icates": 821,
  "icates w": 29711,
  "ict": 15437,
  "ict(": 15380,
  "ict(\"": 20978,
  "ict(\"r": 20929,
  "ict(\"re": 20875,
  "ict(\"rec": 20814,
  "ict()": 20274,
  "ict(l": 15251,
  "ict(le": 15108,
  "ict(lef": 14956,
  "ict(left": 14806,
  "ict.": 29923,
  "ict.f": 29888,
  "ict.fr": 29845,
  "ict.fro": 29797,
  "ict.from": 29741,
  "ictR": 23228,
  "ictRe": 23180,
  "ictRea": 23122,
  "ictRead": 23059,
  "ictReade": 22992,
  "icti": 15311,
  "ictio": 15177,
  "iction": 15030,
  "ictiona": 14877,
  "ictionar": 14729,
  "idd": 443,
  "iddl": 25999,
  "iddle": 444,
  "iddle +": 25791,
  "iddle -": 25795,
  "iddle =": 25757,
  "iddle]": 25872,
  "iddle] =": 25671,
  "idt": 19485,
  "idth": 954,
  "idth 2": 26701,
  "idth 2 f": 26667,
  "idth 3": 19336,
  "idth 3 f": 19194,
  "idth 4": 30621,
  "idth 4 f": 30590,
  "ies": 740,
  "ies f": 23158,
  "ies fo": 23100,
  "ies for": 23035,
  "ies w": 15182,
  "ies wh": 15037,
  "ies whi": 14884,
  "ies whil": 14736,
  "if c": 22019,
  "if co": 21934,
  "if cou": 21835,
  "if coun": 21726,
  "if count": 21611,
  "if l": 15419,
  "if le": 15294,
  "if len": 15157,
  "if len(": 15010,
  "if len(s": 14857,
  "if v": 13863,
  "if va": 13744,
  "if val": 13623,
  "if valu": 13497,
  "if value": 13375,
  "ig": 351,
  "igh": 381,
  "ight": 388,
  "ight =": 16767,
  "ight = 0": 25635,
  "ight = m": 25689,
  "ight = r": 16502,
  "ight i": 27026,
  "ight in": 26924,
  "ight)": 15237,
  "ight) /": 25767,
  "ight) //": 25661,
  "ight):": 15095,
  "ight,": 27152,
  "ight, 0": 26976,
  "ight, 0)": 26865,
  "ight.": 16889,
  "ight.r": 16772,
  "ight.re": 16644,
  "ight.rep": 16508,
  "ight:": 25934,
  "ight]": 27147,
  "ight] =": 26968,
  "igi": 17725,
  "igit": 567,
  "igit i": 17603,
  "igit in": 17541,
  "igit s": 17567,
  "igit su": 17502,
  "igit sum": 17433,
  "igit)": 17654,
  "igit) f": 17533,
  "igit) fo": 17465,
  "ign": 17039,
  "igno": 16946,
  "ignor": 574,
  "ignore": 16738,
  "ignored": 638,
  "ignored,": 16498,
  "ignori": 16717,
  "ignorin": 16588,
  "ignoring": 16448,
  "igu": 22112,
  "igur": 22048,
  "igure": 21963,
  "igured": 21867,
  "igured m": 21642,
  "il": 782,
  "ild": 27983,
  "ild a": 27831,
  "ild an": 27727,
  "ild and": 27612,
  "ile": 15444,
  "ile f": 20661,
  "ile fo": 20604,
  "ile for": 20537,
  "ile h": 27894,
  "ile he": 27801,
  "ile hea": 27695,
  "ile head": 27579,
  "ile l": 25931,
  "ile le": 25852,
  "ile lef": 25755,
  "ile left": 25648,
  "ile r": 15186,
  "ile re": 15041,
  "ile ret": 14889,
  "ile reta": 14740,
  "ile s": 15883,
  "ile st": 15802,
  "ile sta": 15709,
  "ile stac": 15607,
  "iles": 20713,
  "iles p": 20609,
  "iles pa": 20542,
  "iles par": 20475,
  "ili": 14694,
  "ilit": 14655,
  "ility": 882,
  "ility c": 14498,
  "ility co": 14441,
  "ill": 21040,
  "illn": 21010,
  "illna": 20971,
  "illna(": 20921,
  "illna(0": 20866,
  "illna(0)": 20804,
  "ilt": 26643,
  "ilte": 26604,
  "ilter": 26550,
  "ilter a": 29080,
  "ilter an": 29024,
  "ilter r": 26403,
  "ilter re": 26317,
  "im": 314,
  "ime": 903,
  "ime f": 19031,
  "ime fo": 18958,
  "ime for": 18877,
  "imi": 15485,
  "imit": 15373,
  "imit =": 15100,
  "imit = 1": 17121,
  "imit = 2": 14798,
  "imit = 3": 28854,
  "imit = 4": 16090,
  "imit = 5": 20479,
  "imit = 6": 20788,
  "imit = 7": 19518,
  "imit = 8": 21066,
  "imit = 9": 30810,
  "imit = m": 19201,
  "imit)": 20233,
  "imit).": 26544,
  "imit).t": 26474,
  "imit).to": 26396,
  "imit,": 23580,
  "imit, l": 23426,
  "imit, le": 23338,
  "imit]": 16322,
  "imit]:": 27038,
  "imit]]": 16259,
  "imit}": 15306,
  "imp": 20392,
  "impo": 20303,
  "impor": 20192,
  "import": 549,
  "import c": 22971,
  "import d": 24468,
  "import i": 22974,
  "import n": 21214,
  "import p": 19808,
  "imu": 19148,
  "imum": 396,
  "imum 1": 25018,
  "imum 11": 28294,
  "imum 12": 27254,
  "imum 16": 24968,
  "imum 9": 25410,
  "imum 9 f": 25397,
  "imum =": 18973,
  "imum = 1": 18807,
  "imum = 2": 30343,
  "imum = 3": 29321,
  "imum = 4": 30862,
  "imum = 6": 30294,
  "imum = 7": 30166,
  "imum = 9": 22212,
  "imum s": 19322,
  "imum su": 19253,
  "imum sum": 19180,
  "imum v": 26503,
  "imum va": 26427,
  "imum val": 26344,
  "imum\"": 21968,
  "imum\")": 21873,
  "imum)": 22473,
  "imum))": 29858,
  "imum):": 26516,
  "imum:": 19049,
  "imum]": 26591,
  "imum].": 26534,
  "imum].h": 26462,
  "imum].he": 26382,
  "in": 277,
  "in a": 22511,
  "in a P": 26488,
  "in a Pa": 26411,
  "in a Pan": 26326,
  "in a s": 25811,
  "in a so": 25709,
  "in a sor": 25599,
  "in al": 22460,
  "in all": 22394,
  "in allo": 22319,
  "in allow": 22235,
  "in e": 27184,
  "in ed": 27116,
  "in edg": 27029,
  "in edge": 26927,
  "in edges": 26812,
  "in f": 24767,
  "in fi": 24696,
  "in fir": 24613,
  "in firs": 24523,
  "in first": 24430,
  "in r": 14356,
  "in ra": 14288,
  "in ran": 14216,
  "in rang": 14135,
  "in range": 14052,
  "in re": 15284,
  "in res": 15145,
  "in resu": 14997,
  "in resul": 14843,
  "in rev": 27787,
  "in reve": 27677,
  "in rever": 27559,
  "in s": 17712,
  "in so": 19707,
  "in sor": 19674,
  "in sort": 19632,
  "in sorte": 19584,
  "in st": 17663,
  "in str": 17606,
  "in str(": 17544,
  "in str(a": 17475,
  "in t": 20702,
  "in te": 20650,
  "in tex": 20589,
  "in text": 20526,
  "in text)": 22250,
  "in v": 15940,
  "in va": 15863,
  "in val": 15779,
  "in valu": 15683,
  "in value": 15579,
  "in(": 17360,
  "in(l": 20718,
  "in(le": 20674,
  "in(len": 20619,
  "in(len(": 20552,
  "in(len(t": 20486,
  "in(len(v": 25641,
  "in(r": 17330,
  "in(re": 17291,
  "in(rev": 17244,
  "in(reve": 17190,
  "in(rever": 17133,
  "in(s": 22502,
  "in(su": 22448,
  "in(sum": 22379,
  "in(sum(": 22302,
  "in(sum(c": 22216,
  "ina": 26028,
  "inar": 25976,
  "inary": 771,
  "inary s": 25725,
  "inary se": 25616,
  "ind": 619,
  "ind t": 19377,
  "ind th": 19318,
  "ind the": 19247,
  "inde": 14342,
  "index": 639,
  "index +": 14123,
  "index i": 14131,
  "index in": 14048,
  "index o": 25700,
  "index of": 25589,
  "index:": 14199,
  "index:i": 14118,
  "index:in": 14035,
  "indo": 19442,
  "indow": 19389,
  "indow o": 19260,
  "indow of": 19189,
  "ine": 19136,
  "ine w": 19023,
  "ine wh": 18947,
  "ine whe": 18863,
  "ine whet": 18777,
  "ines": 20701,
  "ines i": 20586,
  "ines in": 20523,
  "ines(": 20688,
  "ines()": 20637,
  "ines())": 20570,
  "ines()),": 20504,
  "ing": 354,
  "ing +": 31447,
  "ing +=": 31409,
  "ing += v": 31318,
  "ing =": 31445,
  "ing = 0": 31363,
  "ing P": 20944,
  "ing Pa": 20891,
  "ing Pan": 20832,
  "ing Pand": 20768,
  "ing a": 15838,
  "ing a s": 15653,
  "ing a st": 15550,
  "ing al": 22347,
  "ing alp": 22269,
  "ing alph": 22186,
  "ing an": 17212,
  "ing and": 17157,
  "ing at": 18122,
  "ing at 1": 17860,
  "ing at 2": 28575,
  "ing at 6": 24255,
  "ing at 9": 24292,
  "ing b": 25907,
  "ing bi": 25823,
  "ing bin": 25722,
  "ing bina": 25612,
  "ing k": 15194,
  "ing ke": 15049,
  "ing key": 14897,
  "ing keys": 14748,
  "ing p": 14627,
  "ing pa": 14577,
  "ing par": 14524,
  "ing para": 14466,
  "ing s": 23554,
  "ing sh": 23478,
  "ing sha": 23394,
  "ing shap": 23306,
  "ing t": 16844,
  "ing th": 16721,
  "ing the": 16592,
  "ing v": 29872,
  "ing va": 29826,
  "ing val": 29774,
  "ing valu": 29718,
  "ing)": 31490,
  "ingI": 23240,
  "ingIO": 23195,
  "ingIO(": 23137,
  "ingIO(t": 23075,
  "ingIO(te": 23007,
  "ings": 16933,
  "ings a": 16701,
  "ings ar": 16570,
  "ings are": 16431,
  "ings p": 16733,
  "ings pa": 16606,
  "ings par": 16469,
  "ini": 15448,
  "inim": 26616,
  "inimu": 26566,
  "inimum": 26502,
  "inimum =": 29732,
  "inimum v": 26342,
  "inimum)": 26440,
  "inimum))": 29756,
  "inimum):": 26359,
  "inimum]": 26460,
  "inimum].": 26380,
  "inin": 15327,
  "ining": 15193,
  "ining k": 14895,
  "ining ke": 14746,
  "ining v": 29772,
  "ining va": 29716,
  "init": 616,
  "init_": 18263,
  "init__": 18146,
  "init__(": 18021,
  "init__(s": 17888,
  "initi": 28405,
  "initia": 28383,
  "initial": 28358,
  "initiali": 28331,
  "ink": 27413,
  "inke": 27402,
  "inked": 27389,
  "inked l": 27623,
  "inked li": 27500,
  "inked_": 27372,
  "inked_l": 27353,
  "inked_li": 27332,
  "inn": 13924,
  "inne": 13814,
  "inner": 502,
  "inner p": 13447,
  "inner pa": 13326,
  "int": 807,
  "int(": 17702,
  "int(d": 17650,
  "int(di": 17592,
  "int(dig": 17529,
  "int(digi": 17461,
  "int(v": 19062,
  "int(va": 18995,
  "int(val": 18916,
  "int(valu": 18831,
  "inte": 13790,
  "integ": 13668,
  "intege": 13546,
  "integer": 13422,
  "inter": 16295,
  "interm": 16228,
  "interme": 16151,
  "intermed": 16069,
  "into": 14311,
  "into c": 14163,
  "into ch": 14079,
  "into chu": 13993,
  "into d": 23095,
  "into di": 23029,
  "into dic": 22961,
  "io": 1040,
  "io.": 23268,
  "io.S": 23236,
  "io.St": 23190,
  "io.Str": 23132,
  "io.Stri": 23069,
  "io.Strin": 23002,
  "ion": 294,
  "ion f": 16291,
  "ion fo": 16224,
  "ion for": 16145,
  "ion p": 24044,
  "ion pa": 24012,
  "ion par": 23974,
  "ion para": 23932,
  "ion t": 13655,
  "ion th": 13532,
  "ion tha": 13409,
  "ion that": 13287,
  "iona": 15312,
  "ionar": 15179,
  "ionari": 15033,
  "ionarie": 14880,
  "ionaries": 14732,
  "ions": 625,
  "ions i": 24645,
  "ions im": 24557,
  "ions imp": 24464,
  "ions p": 17798,
  "ions pa": 17784,
  "ions par": 17766,
  "iou": 22530,
  "iou w": 22427,
  "iou wi": 22358,
  "iou wit": 22281,
  "iou with": 22197,
  "iou'": 22501,
  "iouy": 23879,
  "iouy w": 23859,
  "iouy wi": 23847,
  "iouy wit": 23832,
  "iouy'": 23878,
  "irs": 22080,
  "irst": 22001,
  "irst +": 21911,
  "irst + s": 21691,
  "irst n": 21812,
  "irst n F": 21586,
  "irst)": 21991,
  "irst,": 21971,
  "irst, s": 21768,
  "irst, se": 21653,
  "irst-": 24698,
  "irst-i": 24616,
  "irst-in": 24526,
  "irst-o": 24620,
  "irst-ou": 24531,
  "irst-out": 24438,
  "is": 288,
  "is d": 18723,
  "is di": 18687,
  "is div": 18642,
  "is divi": 18598,
  "is divis": 18546,
  "is n": 27967,
  "is no": 27899,
  "is not": 27807,
  "is not N": 27584,
  "is p": 19088,
  "is pr": 19028,
  "is pri": 18955,
  "is prim": 18873,
  "is prime": 18789,
  "isc": 14391,
  "isc p": 14256,
  "isc pa": 14180,
  "isc par": 14096,
  "isc para": 14012,
  "ise": 22094,
  "ise V": 21937,
  "ise Va": 21838,
  "ise Val": 21730,
  "ise Valu": 21614,
  "isi": 14690,
  "isib": 14651,
  "isibi": 14604,
  "isibil": 14552,
  "isibili": 14495,
  "isibilit": 14438,
  "isibl": 18689,
  "isible": 18645,
  "isible b": 18550,
  "isible\"": 18617,
  "iso": 14698,
  "ison": 879,
  "ison f": 14564,
  "ison fo": 14508,
  "ison for": 14451,
  "isor": 19115,
  "isor =": 19008,
  "isor ==": 18931,
  "isor i": 18986,
  "isor in": 18906,
  "iss": 21026,
  "issi": 20989,
  "issin": 20942,
  "issing": 20889,
  "issing P": 20765,
  "ist": 309,
  "ist i": 14238,
  "ist in": 14160,
  "ist int": 14077,
  "ist into": 13991,
  "ist u": 25904,
  "ist us": 25819,
  "ist usi": 25717,
  "ist usin": 25608,
  "ist w": 27843,
  "ist wi": 27741,
  "ist wit": 27627,
  "ist with": 27505,
  "ist(": 23219,
  "ist()": 29223,
  "ist(c": 23171,
  "ist(cs": 23114,
  "ist(csv": 23050,
  "ist(csv.": 22983,
  "ist(d": 29883,
  "ist(di": 29840,
  "ist(dic": 29792,
  "ist(dict": 29736,
  "ista": 13833,
  "istan": 13715,
  "istant": 13593,
  "ists": 27408,
  "ists p": 27378,
  "ists pa": 27359,
  "ists par": 27338,
  "it": 279,
  "it =": 15374,
  "it = 1": 17234,
  "it = 10": 23722,
  "it = 11": 29689,
  "it = 12": 27364,
  "it = 13": 17790,
  "it = 14": 28107,
  "it = 15": 24864,
  "it = 16": 22149,
  "it = 17": 19961,
  "it = 18": 21106,
  "it = 19": 17180,
  "it = 2": 15101,
  "it = 20": 25273,
  "it = 3": 28867,
  "it = 4": 16248,
  "it = 5": 20614,
  "it = 6": 20910,
  "it = 7": 19534,
  "it = 8": 21083,
  "it = 9": 30823,
  "it = m": 19342,
  "it = ma": 19275,
  "it = max": 19203,
  "it a": 14307,
  "it a l": 14156,
  "it a li": 14074,
  "it a lis": 13987,
  "it i": 17711,
  "it in": 17662,
  "it in s": 17542,
  "it in st": 17473,
  "it s": 17679,
  "it su": 17627,
  "it sum": 17569,
  "it sum s": 17434,
  "it)": 17743,
  "it) f": 17655,
  "it) fo": 17598,
  "it) for": 17535,
  "it).": 26641,
  "it).t": 26601,
  "it).to": 26546,
  "it).to_": 26476,
  "it).to_d": 26398,
  "it,": 23665,
  "it, l": 23581,
  "it, le": 23510,
  "it, len": 23428,
  "it, len(": 23340,
  "it]": 16411,
  "it]:": 27190,
  "it]]": 16375,
  "it_": 18448,
  "it__": 18368,
  "it__(": 18265,
  "it__(s": 18148,
  "it__(se": 18023,
  "it__(sel": 17890,
  "ite": 322,
  "ite a": 13645,
  "ite a P": 13396,
  "ite a Py": 13273,
  "item": 15413,
  "items": 830,
  "items(": 15152,
  "items()": 15005,
  "ith": 380,
  "ith N": 23539,
  "ith Nu": 23462,
  "ith Num": 23375,
  "ith NumP": 23287,
  "ith P": 20177,
  "ith Pa": 20054,
  "ith Pan": 19924,
  "ith Pand": 19788,
  "ith a": 16275,
  "ith a c": 16124,
  "ith a co": 16040,
  "ith c": 22430,
  "ith ca": 22362,
  "ith cap": 22284,
  "ith capa": 27507,
  "ith f": 22827,
  "ith fa": 22767,
  "ith fal": 22704,
  "ith fall": 22633,
  "ith o": 21429,
  "ith of": 21357,
  "ith off": 21277,
  "ith offs": 21193,
  "ith t": 13674,
  "ith th": 13553,
  "ith the": 13428,
  "ith z": 20950,
  "ith ze": 20899,
  "ith zer": 20841,
  "ith zero": 20779,
  "ithm": 15351,
  "ithms": 535,
  "ithms p": 14925,
  "ithms pa": 14776,
  "iti": 19143,
  "itia": 28426,
  "itial": 884,
  "itiali": 28385,
  "itializ": 28360,
  "itialize": 28333,
  "itio": 19099,
  "ition": 19040,
  "itions": 18967,
  "itions p": 18802,
  "itl": 20751,
  "itli": 20727,
  "itlin": 20686,
  "itline": 20634,
  "itlines": 20567,
  "itlines(": 20501,
  "ity": 493,
  "ity 8": 27846,
  "ity 8 f": 27632,
  "ity 8 fo": 27512,
  "ity =": 15856,
  "ity = 1": 28555,
  "ity = 14": 28547,
  "ity = 18": 30192,
  "ity = 19": 30977,
  "ity = 2": 15673,
  "ity = 20": 15571,
  "ity = 3": 24566,
  "ity = 5": 26069,
  "ity = 8": 27673,
  "ity c": 14608,
  "ity co": 14557,
  "ity com": 14500,
  "ity comp": 14443,
  "ity]": 15945,
  "ity])": 24737,
  "ity]):": 27791,
  "ity]:": 15870,
  "it}": 15529,
  "ive": 1151,
  "ivi": 14689,
  "ivis": 14649,
  "ivisi": 14603,
  "ivisib": 14550,
  "ivisibi": 14493,
  "ivisibil": 14436,
  "ivisibl": 18600,
  "ivisible": 18549,
  "iviso": 19054,
  "ivisor": 18985,
  "ivisor =": 18847,
  "ivisor i": 18819,
  "ix a": 28422,
  "ix an": 28401,
  "ix an a": 28350,
  "ix an ac": 28322,
  "ix s": 31465,
  "ix su": 31431,
  "ix sum": 31392,
  "ix sums": 31348,
  "ix t": 14644,
  "ix th": 14597,
  "ix the": 14545,
  "ix the d": 14430,
  "iz": 777,
  "ize": 14386,
  "ize 4": 14250,
  "ize 4 f": 14088,
  "ize 4 fo": 14004,
  "ized": 886,
  "ized a": 28389,
  "ized at": 28364,
  "j": 77,
  "jo": 643,
  "joi": 17358,
  "join": 648,
  "join(": 17289,
  "join(r": 17242,
  "join(re": 17188,
  "join(rev": 17131,
  "k": 78,
  "k 1": 22925,
  "k 13": 29312,
  "k 13 f": 29304,
  "k 13 fo": 29297,
  "k 13 for": 29290,
  "k 14": 28519,
  "k 14 f": 28506,
  "k 14 fo": 28498,
  "k 14 for": 28489,
  "k 16": 30573,
  "k 16 f": 30566,
  "k 16 fo": 30559,
  "k 16 for": 30551,
  "k 17": 22884,
  "k 17 f": 22775,
  "k 17 fo": 22711,
  "k 17 for": 22641,
  "k 18": 30543,
  "k 18 f": 30534,
  "k 18 fo": 30526,
  "k 18 for": 30518,
  "k 2": 28843,
  "k 20": 28839,
  "k 20 f": 28826,
  "k 20 fo": 28816,
  "k 20 for": 28806,
  "k 4": 31072,
  "k 4 f": 31058,
  "k 4 fo": 31050,
  "k 4 for": 31041,
  "k 7": 23823,
  "k 7 f": 23811,
  "k 7 fo": 23804,
  "k 7 for": 23795,
  "k =": 15995,
  "k = [": 15859,
  "k = []": 15774,
  "k f": 15984,
  "k fo": 15923,
  "k for": 15843,
  "k for t": 15660,
  "k for th": 15556,
  "k w": 17021,
  "k wh": 16923,
  "k whe": 16813,
  "k whet": 16690,
  "k wheth": 16559,
  "k whethe": 16420,
  "k.a": 16004,
  "k.ap": 15949,
  "k.app": 15874,
  "k.appe": 15792,
  "k.appen": 15697,
  "k.append": 15595,
  "k.p": 16015,
  "k.po": 15964,
  "k.pop": 15895,
  "k.pop(": 15817,
  "k.pop()": 15726,
  "k.pop())": 15627,
  "ke": 393,
  "ked": 799,
  "ked l": 27842,
  "ked li": 27739,
  "ked lis": 27625,
  "ked list": 27502,
  "ked_": 27404,
  "ked_l": 27391,
  "ked_li": 27374,
  "ked_lis": 27355,
  "ked_list": 27334,
  "kee": 17342,
  "keep": 17308,
  "keep a": 17217,
  "keep at": 17161,
  "ker": 934,
  "ker 1": 16850,
  "ker 12": 16728,
  "ker 12 f": 16459,
  "ker 13": 31749,
  "ker 13 f": 31737,
  "ker 15": 29526,
  "ker 15 f": 29513,
  "ker 16": 30926,
  "ker 16 f": 30913,
  "ker 18": 28957,
  "ker 18 f": 28945,
  "key": 422,
  "key)": 15428,
  "key))": 15304,
  "key,": 15404,
  "key, v": 15138,
  "key, va": 14989,
  "key, val": 14836,
  "key:": 15397,
  "key: v": 15128,
  "key: va": 14979,
  "key: val": 14827,
  "key_": 15368,
  "key_l": 15239,
  "key_li": 15096,
  "key_lim": 14945,
  "key_limi": 14795,
  "keys": 819,
  "keys o": 15052,
  "keys of": 14899,
  "keys(": 29896,
  "keys(v": 29853,
  "keys(va": 29805,
  "keys(val": 29748,
  "ks": 1028,
  "ks o": 14317,
  "ks of": 14247,
  "ks of s": 14085,
  "ks of si": 14000,
  "ks p": 15927,
  "ks pa": 15849,
  "ks par": 15762,
  "ks para": 15668,
  "ks param": 15566,
  "l": 79,
  "l v": 25109,
  "l va": 25087,
  "l val": 25055,
  "l valu": 25013,
  "l value": 24960,
  "l values": 24898,
  "lac": 17064,
  "lace": 16979,
  "lace m": 20884,
  "lace mi": 20825,
  "lace mis": 20761,
  "lace(": 16877,
  "lace(\"": 16786,
  "lace(\" \"": 16525,
  "lace(i": 16758,
  "lace(ig": 16629,
  "lace(ign": 16493,
  "las": 18419,
  "lass": 482,
  "lass A": 18133,
  "lass Ac": 18008,
  "lass Acc": 17875,
  "lass N": 27750,
  "lass No": 27639,
  "lass Nod": 27517,
  "lass t": 18101,
  "lass to": 17971,
  "lat": 18427,
  "late": 18337,
  "late v": 18110,
  "late va": 17981,
  "late val": 17847,
  "lato": 18360,
  "lator": 18256,
  "lator =": 18068,
  "lator i": 28353,
  "lator in": 28326,
  "lator(": 18196,
  "lator()": 18074,
  "lator.": 18199,
  "lator.a": 18077,
  "lator.ad": 17944,
  "lator.v": 18090,
  "lator.va": 17959,
  "lator:": 18140,
  "lba": 22923,
  "lbac": 22882,
  "lback": 786,
  "lback 1": 22708,
  "lback 13": 29287,
  "lback 14": 28486,
  "lback 16": 30548,
  "lback 17": 22638,
  "lback 18": 30515,
  "lback 2": 28813,
  "lback 20": 28803,
  "lback 4": 31038,
  "lback 7": 23792,
  "ld a": 27922,
  "ld an": 27832,
  "ld and": 27728,
  "ld and t": 27487,
  "ld w": 29232,
  "ld wi": 29197,
  "ld wit": 29153,
  "ld with": 29101,
  "ld)": 29262,
  "ld):": 29240,
  "ld]": 29268,
  "ld].": 29248,
  "ld].t": 29217,
  "ld].to": 29177,
  "ld].tol": 29129,
  "ld].toli": 29075,
  "le": 306,
  "le +": 26017,
  "le + 1": 25885,
  "le -": 26019,
  "le - 1": 25888,
  "le =": 17695,
  "le = (": 25857,
  "le = (l": 25759,
  "le = (le": 25653,
  "le = 1": 17583,
  "le = 14": 27431,
  "le = 17": 17520,
  "le = 9": 28995,
  "le b": 18727,
  "le by": 18692,
  "le by 1": 24203,
  "le by 11": 30114,
  "le by 13": 24188,
  "le by 2": 25444,
  "le by 26": 25430,
  "le by 3": 26157,
  "le by 30": 28876,
  "le by 31": 26142,
  "le by 4": 31204,
  "le by 41": 31768,
  "le by 45": 31192,
  "le by 5": 22575,
  "le by 50": 22565,
  "le by 56": 25336,
  "le by 6": 28151,
  "le by 67": 28139,
  "le by 7": 18603,
  "le by 72": 18553,
  "le by 79": 25186,
  "le by 8": 21127,
  "le by 85": 30367,
  "le by 86": 21112,
  "le by 9": 24370,
  "le by 97": 24357,
  "le f": 20711,
  "le fo": 20662,
  "le for": 20605,
  "le for t": 20470,
  "le h": 27963,
  "le he": 27895,
  "le hea": 27802,
  "le head": 27696,
  "le l": 25995,
  "le le": 25932,
  "le lef": 25853,
  "le left": 25756,
  "le r": 15321,
  "le re": 15187,
  "le ret": 15042,
  "le reta": 14890,
  "le retai": 14741,
  "le s": 15956,
  "le st": 15884,
  "le sta": 15803,
  "le stac": 15710,
  "le stack": 15608,
  "le\"": 18761,
  "le\" i": 18705,
  "le\" if": 18663,
  "le\" if v": 18571,
  "le]": 26051,
  "le] =": 25949,
  "le] ==": 25874,
  "le] == t": 25673,
  "lea": 29943,
  "leas": 29917,
  "least": 29879,
  "least 1": 29783,
  "least 11": 31641,
  "least 12": 29727,
  "least 14": 30752,
  "least 16": 30272,
  "least 2": 30345,
  "least 20": 30338,
  "least 4": 30863,
  "least 7": 30167,
  "lec": 24836,
  "lect": 24789,
  "lecti": 24721,
  "lectio": 24643,
  "lection": 24554,
  "lections": 875,
  "led": 17730,
  "led b": 17634,
  "led by": 17575,
  "led by 1": 17441,
  "led by 9": 28977,
  "lef": 15474,
  "left": 382,
  "left +": 25860,
  "left + r": 25655,
  "left =": 16746,
  "left = l": 16480,
  "left = m": 25682,
  "left(": 24749,
  "left()": 24676,
  "left() f": 24498,
  "left)": 15254,
  "left,": 15233,
  "left, 0": 26959,
  "left, 0)": 26846,
  "left, r": 14939,
  "left, ri": 14790,
  "left.": 16870,
  "left.r": 16750,
  "left.re": 16622,
  "left.rep": 16485,
  "left]": 27130,
  "left] =": 26944,
  "len": 464,
  "len(": 14365,
  "len(q": 24753,
  "len(qu": 24681,
  "len(que": 24596,
  "len(queu": 24505,
  "len(s": 15296,
  "len(st": 15159,
  "len(str": 15012,
  "len(str(": 14859,
  "len(t": 20676,
  "len(te": 20622,
  "len(tex": 20555,
  "len(text": 20489,
  "len(v": 14297,
  "len(va": 14225,
  "len(val": 14144,
  "len(valu": 14061,
  "les": 20744,
  "les p": 20666,
  "les pa": 20610,
  "les par": 20543,
  "les para": 20476,
  "let": 24073,
  "lete": 24051,
  "lete a": 23983,
  "lete a f": 23898,
  "leti": 24065,
  "letio": 24042,
  "letion": 24010,
  "letion p": 23929,
  "lf": 481,
  "lf,": 18454,
  "lf, a": 18293,
  "lf, am": 18178,
  "lf, amo": 18053,
  "lf, amou": 17918,
  "lf, s": 18271,
  "lf, st": 18154,
  "lf, sta": 18029,
  "lf, star": 17896,
  "lf, v": 27854,
  "lf, va": 27755,
  "lf, val": 27645,
  "lf, valu": 27523,
  "lf.": 18460,
  "lf.n": 27950,
  "lf.ne": 27873,
  "lf.nex": 27776,
  "lf.next": 27667,
  "lf.v": 18382,
  "lf.va": 18281,
  "lf.val": 18164,
  "lf.valu": 18038,
  "lf.value": 17904,
  "lgo": 15463,
  "lgor": 15347,
  "lgori": 15218,
  "lgorit": 15074,
  "lgorith": 14922,
  "lgorithm": 14773,
  "lic": 29938,
  "lica": 29908,
  "licat": 29868,
  "licate": 29822,
  "licates": 29768,
  "lim": 352,
  "limi": 15372,
  "limit": 353,
  "limit =": 14948,
  "limit)": 20115,
  "limit).": 26473,
  "limit).t": 26395,
  "limit,": 23508,
  "limit, l": 23337,
  "limit]": 16258,
  "limit]:": 26937,
  "limit]]": 16185,
  "limit}": 15168,
  "lin": 1054,
  "line": 20700,
  "lines": 1060,
  "lines i": 20522,
  "lines in": 20453,
  "lines(": 20636,
  "lines()": 20569,
  "lines())": 20503,
  "link": 27401,
  "linke": 27388,
  "linked": 27371,
  "linked l": 27499,
  "linked_": 27352,
  "linked_l": 27331,
  "lis": 14377,
  "list": 920,
  "list i": 14159,
  "list in": 14076,
  "list int": 13990,
  "list u": 25818,
  "list us": 25716,
  "list usi": 25607,
  "list w": 27740,
  "list wi": 27626,
  "list wit": 27504,
  "list(": 23170,
  "list()": 29182,
  "list(c": 23113,
  "list(cs": 23049,
  "list(csv": 22982,
  "list(d": 29839,
  "list(di": 29791,
  "list(dic": 29735,
  "lists": 921,
  "lists p": 27358,
  "lists pa": 27337,
  "lit": 14374,
  "lit a": 14235,
  "lit a l": 14073,
  "lit a li": 13986,
  "litl": 20726,
  "litli": 20685,
  "litlin": 20633,
  "litline": 20566,
  "litlines": 20500,
  "lity": 14656,
  "lity c": 14556,
  "lity co": 14499,
  "lity com": 14442,
  "liz": 28441,
  "lize": 28430,
  "lized": 28410,
  "lized a": 28363,
  "lized at": 28336,
  "ll": 1098,
  "llb": 22922,
  "llba": 22881,
  "llbac": 22832,
  "llback": 22772,
  "llback 1": 22637,
  "llback 2": 28802,
  "llback 4": 31028,
  "llback 7": 23783,
  "lle": 24835,
  "llec": 24788,
  "llect": 24720,
  "llecti": 24642,
  "llectio": 24553,
  "llection": 24461,
  "lln": 21041,
  "llna": 21011,
  "llna(": 20972,
  "llna(0": 20922,
  "llna(0)": 20867,
  "llna(0).": 20805,
  "llo": 22538,
  "llow": 22497,
  "llowe": 22439,
  "llowed": 22370,
  "llowed =": 22206,
  "llowed f": 22237,
  "lna": 21042,
  "lna(": 21012,
  "lna(0": 20973,
  "lna(0)": 20923,
  "lna(0).": 20868,
  "lna(0).t": 20806,
  "lo": 1123,
  "loa": 21562,
  "loat": 21514,
  "loat(": 21455,
  "loat(n": 21387,
  "loat(np": 21313,
  "loat(np.": 21231,
  "low": 524,
  "low\"": 13873,
  "low\" i": 13635,
  "low\" if": 13509,
  "lowe": 17007,
  "lowed": 22440,
  "lowed =": 22293,
  "lowed f": 22321,
  "lowed fo": 22238,
  "lower": 637,
  "lower(": 16796,
  "lower()": 16670,
  "lower())": 16536,
  "lph": 22524,
  "lpha": 22482,
  "lphab": 22421,
  "lphabe": 22351,
  "lphabet": 22273,
  "ls =": 31477,
[...]
